#version: 0.2
e r
i n
o n
e s
e n
a n
a t
e d
a l
a r
i s
i c
o r
in g
u n
i t
r e
l e
r o
e l
s t
c h
u s
i l
r a
o l
o m
e t
i on
es s
l y
i d
p h
u l
a c
en t
u r
a s
a b
t h
e m
a m
o s
a d
o t
u t
o us
r i
u m
is t
o g
t er
e c
i m
a g
o p
i v
i g
at ion
o c
o d
er s
i z
a p
q u
an t
i r
n on
i a
v er
s u
p er
l o
c on
es t
s h
n ess
at e
i f
i p
ic al
an d
c o
p ro
d e
l a
e x
s p
' s
el l
i an
c e
s e
is m
in e
un d
c t
p re
ab le
i es
h e
is h
it y
c om
i b
u d
il l
ar d
h y
o b
a st
k e
p l
n e
p r
o w
t r
it e
al l
o ver
s c
en d
a e
i al
t e
f f
m an
f or
i e
u g
m ent
a k
a v
iv e
d is
an g
p t
at ed
r y
b e
b l
u c
in d
p ar
a y
b o
ec t
o st
o ph
c l
y l
h t
in t
at h
su b
ol og
as s
en ess
u b
e p
o ut
f l
en s
or t
i er
u p
ic k
t a
ical ly
ac k
m on
iz e
f ul
t ra
c y
g e
at or
in ter
ar t
el y
l i
o v
u st
i ous
a ch
m is
w or
r es
s y
w e
id e
o k
ar y
r on
at ing
b er
s el
r an
p e
u re
r ic
ra ph
in s
ac e
m o
lo w
h o
t o
on e
r ed
h a
ac t
le t
c or
m at
oc k
y s
g l
m e
l ess
p o
h er
m et
r u
ig ht
c ar
d er
m a
s em
c ol
an s
ing ly
d i
s o
a w
is e
sel f
e v
p ol
i um
ag e
f o
il ity
g ra
m in
w o
it h
t on
il le
und er
ro w
v e
o id
ro p
ul t
w ell
su per
og raph
w h
a u
al ly
iz ed
en ce
m er
b ar
re t
in ess
r at
ul ar
t ed
et er
o th
a h
t y
C h
le ct
l ing
l ed
un g
ic e
m ar
id ae
ic h
en e
f er
an n
ro s
b ur
i re
Ã ©
i ed
f e
g er
b r
o x
A n
t ri
g u
p ed
0 0
b ra
os e
y n
s er
ation s
m ic
s l
m y
c er
ig n
s k
or n
i le
al e
d ec
m en
ar ch
at ive
o f
m ed
un t
ol d
h al
g en
or e
p le
as h
c op
v ille
p os
a ut
in c
ab l
o ur
ing s
t w
he ad
li ke
sh ip
i k
on d
il y
un c
un s
iz ation
iz ing
a z
or m
r it
ch e
as i
re e
on g
at es
iv ely
ion s
u e
in k
ow n
an th
c k
an ce
at er
in n
an e
o u
on t
c al
a f
or s
b le
g r
d es
p ers
at t
e y
ri g
b ro
i est
ab ly
ra m
og en
ist ic
ed ness
ab ility
an c
em ent
s n
th er
p ost
a x
st er
om y
d o
com ment
c ur
on s
uc k
m al
b re
r en
it ies
qu asi
t ing
om e
A l
le g
l er
s w
hy d
# !
c ent
o ch
et h
p y
v en
a ff
b ed
un ter
g o
Ġ -
en n
if ic
us h
a in
is s
ar e
qu e
y m
t ro
ug h
a ir
or d
d u
la st
olog y
se ud
re l
an k
i o
ar s
i x
en c
er ed
et ic
p or
is ed
l and
st e
0 1
p al
s ch
l es
h em
p et
abl eness
d em
t en
wo od
b ack
t ur
os is
a ph
p at
a il
ed ly
th e
c ap
re g
f t
i ent
ous ly
pr es
r ing
ig h
ib le
g ed
s ol
it ion
er y
co unter
e g
d en
p ort
p seud
z o
ph al
h ar
A r
os s
ist s
ic t
ro m
am b
wor k
l in
y t
h and
in a
if y
o ff
p an
p ri
d ra
c ul
if orm
al s
as e
tr ans
ro t
v ol
ro l
iv eness
w ard
e ar
it is
p s
in f
or y
hy per
ic s
or ph
con t
c a
v ent
el d
v ers
pr ess
ator y
ar i
om an
com m
om et
ul l
is ing
pol y
k n
s m
ec k
e lect
f ish
v al
b or
Ã ¤
er ous
s on
ro ph
b i
c at
l or
u al
r id
z e
er n
in es
ar m
p ra
r h
p ur
b y
o y
r um
for m
o le
it t
v el
c ra
re f
c an
et t
b ut
u ch
n er
p ing
s al
ad e
un f
v is
ac c
v i
om at
g ar
b al
re m
h um
ace ae
in ed
el i
p la
re c
s ul
u ff
u ra
ace ous
le y
e e
i as
r est
b el
r ess
hal f
h om
re p
ot t
d om
it ic
w ay
us s
ag n
sy n
u th
ion al
pr ed
st ra
er e
r al
M ar
de f
m es
s qu
ous ness
s ur
un n
if f
ad d
ious ly
p en
ch ar
p a
S t
p i
m el
ph ot
d el
ation al
c ri
h ip
ir d
b on
al k
h ol
c le
h am
u ro
it ch
p ot
or g
ant i
con s
a ur
m ak
en cy
m ult
h ous
t im
mic ro
g y
e k
e le
w ar
ug ht
fo ot
er t
il d
he art
g re
yl l
par t
b it
h or
g al
c ir
d y
e qu
l ar
on ic
pro of
b es
et s
am p
olog ical
g ro
g ing
ct ion
com p
P ro
ar ian
or ed
con f
I n
in al
u k
ic ul
e b
f ac
s il
un k
ros s
c lo
d ist
er ing
re ad
ious ness
n a
t op
at ur
e w
j ect
fl u
ol l
em b
ce pt
tw ice
ent ly
an a
el s
at ic
c re
r is
ter s
a it
es is
s s
el ess
il i
c um
or th
st r
ex t
b en
ch i
om eter
l im
ra g
ov ers
r in
r ist
er al
ot e
os cop
k s
c ut
ath er
ro g
S h
et te
hy p
l d
ial ly
im m
bur g
n o
row n
i ph
rig ht
if ied
in st
d iv
la v
j o
ch er
om a
pre c
if erous
y g
ast er
l at
p ul
ful ly
w ise
um b
v it
b u
k er
L e
sh e
pl ic
p in
olog ist
t s
m us
tr an
Ġ Ġ
it es
ta il
hyd ro
c in
i eld
u le
C ar
sp ir
sy ch
v ed
d a
l en
am e
f low
s ec
we ed
ho od
a er
th y
t et
y ing
ri es
ur n
iz es
w ind
id es
l ong
l it
p ic
z z
w ater
un ch
us e
ex p
e ff
ant ic
m od
v es
T h
ant s
m or
m ac
ot ic
pro t
am in
en ed
ut e
ific ation
ar k
ag es
ness es
ograph y
i ra
sc ri
l ight
o h
p ass
oc c
wor ld
p it
v ing
g on
t em
m id
mis s
m it
ph il
b as
b ol
v o
for e
it ed
d own
ent er
os ph
op er
ap ed
ex c
E l
P h
su p
re ct
E R
l og
s a
i us
oc y
t re
id ent
co ur
w ing
o e
at s
un re
h ard
n ot
on y
b lo
ro us
am ent
at a
id er
sy m
b and
c r
k a
m ind
f il
en g
ur ed
ar n
oth er
t or
og n
im ent
de v
k in
ch ed
b ul
u x
om orph
m ot
p end
t al
un con
el le
st one
c ross
d ri
f ar
ur al
p ap
il la
c ry
d ed
at ely
i ac
er g
ment s
s im
ian s
f ur
S ch
ph en
iz er
k ed
s ing
as c
k ing
ot y
f ra
ib ility
b all
t i
ul a
bo ard
l ine
b at
c os
es ter
el la
ra di
it s
ri f
hous e
b et
b ird
g a
p ent
le x
us es
m ill
p ut
ar ing
od ont
es e
re w
op s
head ed
l as
m il
s or
u de
ru ct
b a
g ent
ant ly
ism s
t ar
i ate
am ph
b ow
d og
ta in
A R
h eter
qu in
ad en
ful ness
E n
c ro
g ri
y r
ar th
ph on
p sych
an al
ra d
ul ate
ex tra
N e
w a
ing ness
C on
o z
v an
th al
ver t
f a
s we
ra p
ist er
ish ness
ator s
b ell
it or
res p
l ab
at ively
ar p
bl ack
r ub
at ch
el low
ra c
em at
l ac
w it
av e
p u
bo ok
sem i
l oc
s ac
org an
c ock
g n
h ab
h igh
i et
ke y
g es
th or
R e
al ity
con c
la w
c u
h el
v a
is on
in v
ra s
ut ion
sh aped
A m
l an
un ct
U n
b in
m ut
f act
ar ies
od e
ap t
l am
un st
is ation
ch y
la y
b an
c ard
is er
g lo
j ud
op t
d et
s in
d ip
g et
l ip
ar a
e an
i ke
o ol
r ate
ro d
ob ia
A N
f ol
i os
m s
p op
end er
ser v
f in
ak ing
en ing
ar ia
pro v
po int
it al
um in
B e
c ot
un e
ph y
h ed
w ort
id s
O r
f ire
qu ad
ak er
l iv
r ust
om er
ic o
ch lor
a ud
p el
it er
ir ed
Q u
is es
do ub
v ir
pro f
pl an
an cy
b ing
d am
w he
en a
wh ite
ify ing
g am
at ter
ac et
ot s
ur es
ell ing
b od
n ar
I N
ch es
id d
ish ly
ap s
ful l
elect ro
M c
c am
p ath
or ous
ant e
and er
or a
ro ck
d on
d ig
l ic
l ib
s at
in er
ell ed
cir cum
c ed
d ay
g le
av ed
b ill
p il
re v
um p
con tra
ish ed
oph il
O N
ch em
ol a
c ast
i or
om b
ne y
f ield
op e
o on
is c
ch o
ra b
ur s
sp ect
im p
b ri
es th
con st
i en
ch n
ph ys
ran ch
ter n
ud d
ang e
sul ph
a ke
k y
em on
un w
l ad
ic ular
id i
em p
ec e
iv es
f re
st and
em ia
d r
et e
th ree
ist ically
h en
h ex
i od
ac ter
m as
al d
mat ic
l ock
t ub
in o
em an
wor d
ber ry
m ist
s le
il t
bo x
ox y
a i
il s
ol y
ent s
ib ly
olog ic
fac ed
ag ed
B ar
h ist
ro ugh
ch a
op od
for d
s en
le m
ib l
H e
g ast
re am
om n
oc t
sp ec
enc es
S T
u v
ra y
op ter
ne um
f lo
s um
an im
ag g
mo uth
ag on
ary n
r ical
s et
S e
l if
r ation
es c
lo ok
sh o
D e
m ast
em pt
ap e
be g
ograph ic
c as
w oman
ro st
blo od
P er
b il
el ed
cor d
ey ed
H er
k en
t wo
ar ter
ion ed
less ness
r ant
al t
om in
om en
id al
oph ag
p od
ul ation
C ol
G u
or ic
um s
g el
j e
n ut
s oc
v ic
or al
od er
n ed
o od
su c
pl ac
ys is
j ack
m ing
or r
it a
ot omy
mak er
m agn
s ar
un ic
ur g
d im
f ir
st ri
il ed
ard s
ne w
ost e
anth rop
M on
b est
f ree
ot rop
op last
su pers
ric h
in ing
anc es
b ush
c ess
t u
co ver
on es
ad s
im per
te le
oph y
un p
oc e
af ter
du ct
an o
pl at
n os
og ram
. '
ad o
i at
n ight
p ig
s un
en ch
el ic
ir on
su ff
ical ness
H y
u ct
st ar
ent h
ent ial
c it
f ib
h orn
j ust
s ign
C al
R E
b ec
p ale
s mo
or ial
ow er
bo und
mak ing
H ar
l ig
m ag
n it
er o
er ic
ect ion
c es
y e
ro ot
ol ic
con d
col ored
p on
s ed
sp e
pre t
flow er
f ly
i able
sh ort
pseud o
C or
c el
e ver
f ri
g old
p ast
fo ur
gre en
g est
j ur
k et
y ellow
in ae
pre h
g ly
h u
r ent
r ang
ro und
ul tra
as on
for t
ru pt
a ver
c ab
f ast
n et
s id
in it
es h
ad ed
iv al
ang u
s an
s ent
en ic
i ol
p ens
au x
l s
Ġ 2
in i
im e
s per
t ap
ian ism
n i
o o
Ġ 3
in ous
in ate
om ic
oc rat
bur n
ĠĠ ĠĠ
Ġ 5
Ġ 6
Ġ 7
Ġ 8
Ġ 9
und ers
dra w
v ag
Ġ 4
al es
om ed
doub le
f le
ac qu
bl ed
I S
al ism
un ex
ul ated
os es
ap pro
dis c
ov e
gr ess
A T
m ur
t est
al le
ro b
gra m
her e
f ron
g all
h on
Ã ¨
ers hip
oph obia
yn am
m ad
in ation
ac y
iv er
M al
ap p
cor n
ogen ic
v ul
w ed
sp l
ber g
oscop e
ibl eness
b ag
s ph
v et
on ia
il ities
em ic
ir t
end ed
a qu
int ed
eli ke
E N
f all
s and
s ens
bl ue
pla y
' d
A C
b ab
l iness
n al
en er
cl ass
gr and
yt ic
l ers
t it
id a
C o
M er
c oc
c ell
d ic
d ia
m ol
s ix
v in
v ar
Ġ 1
st ock
hy l
ence phal
A d
P ar
i ation
ch an
ch or
ter ed
pro p
bo y
O R
l ap
in u
es ia
il ing
A L
a j
c ad
c la
e u
h ur
sc ar
av en
ran k
let s
ton gu
gen er
i ers
t in
am m
iv ity
co w
se a
ay s
W h
b us
al g
un sh
us ion
ur ing
b uck
e f
l ie
at o
ar g
it ive
ri a
ta x
pers on
fish es
C om
p ip
t el
ro om
ce phal
ill ed
uc le
cy st
tet ra
b ull
s ide
wor th
M an
a ul
b low
oce phal
B o
E d
b orn
m and
er a
ic on
st ick
ch ing
ill ing
E S
c ular
l u
el t
man n
ron g
ho le
omet ry
b os
c od
c and
d ro
h old
n y
p ant
el a
ut er
ri an
ant ip
con n
t own
am ine
ag u
tur n
A S
B r
f ed
h ib
v oc
al ist
st at
ch ron
il o
et y
th o
op en
ob last
S te
d ing
d ol
un m
it ing
sub st
pos s
sn ow
G er
o il
al ize
ch ro
de ep
pl um
r or
an y
iz z
ha w
sk y
pres ent
f at
j ug
in ic
at hy
ra ct
ri x
iv ers
end ing
fl ag
wor m
hor se
B ra
t ab
at ure
un h
le aved
qu er
V er
e ch
tr y
heart ed
mind ed
I C
S al
b ig
f al
l ith
s av
w ash
el ing
st all
os p
ant im
non re
G e
b ib
d est
h ot
t il
w in
it ation
le af
lo y
bo at
olog ically
tim e
M or
m aster
n or
v est
se qu
pt ion
B er
m os
v iv
on ian
al ed
ag er
tra ct
br id
clo th
k o
s ap
ic ed
om ies
cy cl
ad a
um ber
be ar
rol og
f ig
g as
et ically
ad ing
op ol
se pt
ish ing
hy po
swe et
A M
b ot
g em
m ous
re en
ad es
ect omy
' t
e a
p ir
p ick
s man
w all
re at
ro y
ra in
co st
ha ir
act yl
less ly
b ic
b ank
i j
v ie
or es
P al
d uc
p ect
t ol
z en
ar ed
ch ol
ig en
bl ing
cl im
mon t
ium s
ple as
omet ric
B l
d ry
m ir
p neum
s es
s aw
t ip
z a
st re
st em
ut ter
pl ed
00 0
way s
M el
g od
i el
n ic
p enn
un in
ri m
og am
im et
qu is
per f
tr ic
ide a
M o
b ron
f ing
s ick
non con
ak ed
spir it
a us
b ott
s us
er v
al low
un pro
ro se
ap pe
ob i
int ra
th ick
so ft
ward s
hum an
E r
d ish
f old
i ence
p ter
z ed
on a
ph osph
ent al
am a
if t
bor o
W e
i oc
n eck
al y
st ep
ur ia
ast ic
ne g
ne ph
l ich
v as
al lo
um er
ell er
ib er
cl er
to x
to oth
Ch rist
look ing
f am
g h
p id
r er
r ated
u bl
z er
il ly
und is
col l
n ec
un de
os ity
ri b
ist ical
fl at
A b
E L
i ated
t ree
w rit
ol s
ly m
ab ol
th ro
op ed
op ath
iness es
ement s
ther m
T ur
g or
l oss
z ing
at eness
al a
al ing
em in
co unt
pal ae
R os
i ro
ol ith
out s
gl ut
gra ss
M ac
b ug
i qu
r ug
t ic
us ed
ke e
so ul
mar k
sl ip
ster e
t ot
z y
un com
lo id
ind er
ey e
E x
P an
g an
p ec
ic es
ic ate
qu est
sp in
end s
mon ger
c av
f av
m ort
s om
at iveness
re pro
pl ant
ie f
ect ed
res h
mo on
sem ic
go od
c ult
g ran
i aceae
n atur
w ith
w alk
it ut
ac o
An ti
ben z
sing le
c ran
d rop
l l
w er
ic an
id ed
ur y
em a
em e
tr ich
cl os
M a
i ant
n ow
it an
it able
re in
st on
ch al
ch eck
ra ck
ac id
iz able
up s
ear th
cry pt
g ang
k i
o es
r un
un b
ch rom
il es
oph thal
olog ies
C am
E m
t le
u ous
or ch
ch in
ad v
ne uro
pos ition
d il
m u
r ite
ot ted
oc o
sp or
bl ind
aw n
pos it
vi ol
sil ver
C O
c ant
i ot
j our
as is
ret ro
ple x
M e
a is
c all
an is
at in
un im
sp ar
N on
b last
c ath
f ru
h od
j u
r ically
y o
ed ing
ar ist
ion ist
ul s
ag og
col or
wh ip
T e
c ate
d ent
h an
j a
m ach
t um
w ick
Ã ¶
ic ation
ul ating
ox id
ogen esis
sch ool
B ur
g rat
r ill
s ome
t om
al ized
ion ary
ph yt
op y
if ies
ograph ical
tho ught
C y
d ial
o i
y a
os oph
oph yll
ub er
d ict
ul d
sp ort
ang le
met er
sem ip
ograph er
ou th
preh ens
H ol
I T
P ol
d iff
j oy
u es
v ac
ra w
as k
oc er
la x
com b
oph or
oid al
gro und
r hy
t am
y er
an i
ar l
ar o
el er
om s
id ing
ne ed
U S
a int
c us
g yn
on der
ed uc
al b
as es
ap or
pr er
one y
bre ak
foot ed
D el
c up
h ome
p ack
w ide
ad er
og on
od on
rit ic
d le
d oc
g row
r ud
s ex
an at
ch am
ch ond
ac on
os aur
ri e
ap y
if e
if er
ang el
li k
f et
r ut
s ke
v ict
ic a
un ted
ess es
ul ous
oc arp
ber t
ogen ous
B el
F ran
H al
S c
d ys
h og
n ov
o zo
p es
r il
y le
it ude
re al
em er
qu ick
ip p
de ad
po und
ros is
rol l
pra ct
cra ft
scri pt
aryn g
T he
f ace
s la
z on
ab b
dem on
A t
S er
c et
c art
d ale
h es
k ind
r ick
u per
ch ap
ul ph
am ed
ri ed
qu al
de b
cl am
fo und
bro ad
E T
b id
h op
m ul
m am
p ay
u a
v ice
es p
ro ad
ch ur
ant is
sc ler
oph ys
enc ies
c ac
c iv
m ud
r us
s ville
in ct
on om
un l
st en
om al
et a
ir l
su pra
per i
if fer
se ed
cl ad
ran chi
wo ol
pos ed
flu or
i h
m art
n om
o is
w ig
pro s
sp ring
Ã¤ n
Ph il
A D
A s
R O
b one
b att
g la
h ang
ic ity
it ter
it ate
ra ch
os por
ir re
bl es
li qu
gu ard
g un
n as
ir es
non ex
est ed
te ar
ating ly
hem at
mult ip
P et
W il
b red
l ier
r ine
u it
u ph
u ally
in cl
it ting
re con
ro id
et ical
ous e
pre con
pl ate
be aring
ran s
col lect
ev ol
yll ab
a ug
b s
d ar
e ph
f us
f air
g um
r Ã©
or ing
le v
st ic
st ro
as ia
ish es
ment al
act in
gl ass
cri min
b rown
c ing
f ix
i que
p ac
r ink
in ated
is k
it o
ol ite
am o
ri p
iv ing
sh op
de x
ast ed
ak es
so und
pu bl
M S
n ob
s ab
u pt
y ard
er ies
in tr
as m
ric t
der ed
inn ed
ste ad
B S
G ra
L a
m em
p up
t es
es cent
ar ily
st yl
ch en
od y
cy an
li est
ust er
ho ok
me as
min ist
hab it
smo oth
d eter
g ig
m ia
p om
ic ol
it z
ul i
ish ment
com pl
sc al
sm all
tail ed
A P
f u
h ap
v ari
as se
og e
sh ot
av es
act ion
ling s
my th
abl es
stra ight
P l
g raph
h ier
un a
st ud
st rat
il lo
et ta
he pat
ast e
ect or
gl oss
oscop y
V al
b is
d ress
k es
n s
o ec
r he
t ick
le ment
ist ed
de pend
ob ject
ne u
sc op
ach y
press ion
I L
c ub
d s
r up
s co
in con
it ud
ol ig
th ir
ill er
man y
ang i
bl ock
car n
col on
ogen etic
pat ri
off ic
cont inu
E D
c rown
d ism
f ic
g in
i am
l on
l ion
s am
t ow
t ight
Ã ¼
in te
al i
re ed
el ia
ol at
ent ed
as y
as ed
ot ed
oc ar
iz ations
tri but
mac ro
jud ic
g ut
h ag
m ost
al ous
un co
un sp
un se
bo ur
cle an
lym ph
2 00
N or
f um
k ins
m ix
n es
n av
x y
z es
le e
ra il
ra ce
id ly
ph ant
am id
ec ut
ag ger
gra v
omat a
A g
A p
C ap
G al
M y
P ost
h ell
h ow
p ier
en z
ed er
ar c
or ia
re ck
ol es
ter min
op las
lo b
ip ar
pr on
comm unic
M ad
P e
d Ã©
h at
i i
l uc
p ist
s ail
in fl
st om
ess ion
ul us
am er
ig er
qu ar
ill s
hy ster
over n
te chn
ang er
be w
cl ose
py ro
oman ia
B al
C H
T er
a ed
b ac
b ir
h all
j ac
r and
en o
un ad
ra cy
th under
em por
im on
oc ent
ir m
non pro
par as
me g
au thor
Ch ar
har mon
. .
p un
r ene
v ig
w an
al ness
ess ed
ur an
ak en
res ol
act ic
och ro
sol id
kn ow
cra ck
rog raph
whe el
H el
K e
b ad
w atch
Ã ĥ
ro pe
id ium
im er
ag ing
qu arter
ir s
su bl
ud ed
pr int
all ed
ug e
ost er
int ro
tra m
hand ed
cri pt
occ up
L y
h ob
k il
m orph
o und
t able
w el
or ship
ing u
it her
us ive
ag in
ation ist
sh arp
ob st
for med
ber ries
di rect
gra y
ve y
mer c
omat ic
sul f
cons um
wing ed
S y
f ro
g ate
s ight
z yg
it ious
st ain
ra v
ur ic
am ar
ri er
im a
od d
ial ity
ep s
ok en
car e
br ush
work s
bu ilt
tem per
4 00
S ar
T H
g ard
h us
i aceous
m ass
u f
w ire
on ed
or ies
le uc
ch ry
us ing
et ed
th s
de w
ow ed
tr ust
cy t
ov en
ok ed
aut o
bre ath
ord in
lin ed
pi ece
mouth ed
magn et
3 00
F or
L E
M ont
g ers
h i
h r
w inter
et her
im pro
oc ele
non f
pt ic
so ur
my el
comm un
val u
ocy st
ocy te
gast ro
5 00
6 00
7 00
8 00
9 00
B ro
C an
b em
t end
t rop
x anth
on ym
at he
le an
il ic
em en
am an
ad i
im eter
ap per
ne e
av y
ma id
fo ol
bre ad
sal t
lif e
C l
D on
M us
M ay
d or
p us
w est
es que
is cop
un per
ch ild
ol ar
em ph
am y
am ic
ag en
od es
to uch
orn ith
b ud
b row
b ene
c row
d id
x yl
an ic
ra ble
id ian
em per
ri v
con sc
co un
pr inc
ink ing
pri m
miss ion
G ar
b acter
c ase
e ur
f un
h os
w art
w are
il it
ol i
id ia
id ity
am s
ig u
oc yt
co al
be at
we ight
ock s
gen eral
back ed
pri v
mel an
pap er
esc ence
O S
b la
c red
g ul
j ar
n est
p all
t ut
in qu
in ex
is su
un sc
ro man
um e
iz ers
per ic
ae an
bl er
ep ing
ich thy
emb ry
G re
P y
b um
d od
d ark
l ot
m ob
p ie
r ating
s low
w ax
y ear
at al
un for
st op
ap ost
con ce
ip s
and a
de ath
se y
ob lig
ep ic
we ar
cor por
ograph ically
bar k
anc ed
oty pe
gent le
E C
f an
i idae
o ugh
p ow
v ill
at on
at ta
al ia
st ring
st rong
ol f
ph yl
ur er
th en
ot er
qu et
est e
ian a
ard ed
be e
ide an
bra in
sk in
last ic
ĠĠĠĠ ĠĠĠĠ
ilo qu
C er
D or
L uc
b ly
g az
j er
l ist
m ate
m uc
m ith
n ick
o ok
ed s
al ization
or ig
le pt
ag an
sh ell
sh ire
pl es
me chan
cer t
ient ly
imm un
wit ted
H am
i ology
j aw
m n
n in
p est
v ine
in fer
en se
at i
al izing
le ad
ly n
sp ur
sp len
he pt
ob e
ind ic
ach e
wor n
ru ff
cal c
tub er
b og
b right
k h
o en
p inn
s ect
t ent
ed e
al in
al th
il a
il ar
iv ed
yl ic
eness es
mo ther
her o
ann a
ster n
pass ion
b uff
f lav
g ia
h eli
l ust
r ul
w ill
w ild
er d
an es
un ce
ro of
th es
os h
ut ed
su ck
sh ow
if ier
ep ig
fl or
res ist
ha z
mat er
car bon
bur y
cer e
our s
comm od
iph on
bib li
penn y
2 01
3 01
4 01
5 01
6 01
7 01
8 01
9 01
S k
S he
d ust
f ash
h av
h oney
m ant
m ay
m ov
w is
in ch
is ion
or rh
it ted
el o
ac ious
ot ing
od or
pl ace
oph ore
art icul
Ã© e
unt ing
omat ous
ias is
orr he
G od
J oh
M ic
b ath
c en
h ay
i ri
l ass
r ush
t an
v ib
Ã ª
en de
al og
un ab
re ver
ly ing
as per
am orph
ter ing
ec a
ag o
ir k
non de
ne ur
tr ess
man ship
ator ial
ah s
cle ar
omorph ic
cover ed
D ar
F re
b ob
d re
h in
i ary
n ing
x en
al er
it ions
il er
ra z
ol ysis
id ine
ri but
ex per
ow l
ak s
res c
po le
itt le
add le
vie w
A c
C S
I s
K ar
P S
P seud
S am
l un
n at
u ther
w id
w arm
ic le
re vol
om as
ut s
um ent
op athy
and s
sem is
pol ar
ren ch
port ion
Ar ch
amb ul
uro us
phil osoph
D es
M il
S ol
b ers
c ann
l os
p as
p ad
Ã Ł
in y
en ne
at ers
ic ism
un pre
ly s
ph yll
ab a
th ing
am en
um en
og ene
op le
su g
co ff
ian ce
ick s
ron e
ev en
ty pe
but ter
lar ge
R ob
f el
g ab
g reg
h ost
i ency
m ig
o ed
p itch
is o
il ia
et ing
em ot
ot om
su re
if ul
pr est
par ad
ack s
we ak
ma x
rat es
inn er
ars en
pred is
ogn ath
inv est
A sh
C le
C ha
I I
I r
U N
h n
l ate
l act
t ort
an ch
ar in
ar ium
ess e
th in
os c
og loss
oc al
ap par
com e
ug g
int el
ure t
po et
ship s
roph y
pla in
cour t
cos m
H a
J ud
N ew
c ru
d ich
p ill
on ite
ac ro
ur b
am ing
ag ue
ag ram
ap er
lo ve
co ol
pro mis
ex tr
ell ate
com pan
sc rew
ae a
ind iv
olog ists
des c
oman cy
bu ild
sec ret
resp ect
M ag
M art
R o
f ier
h ung
n ig
r ational
w il
an ter
ar med
or i
ent y
as p
ad ic
im s
con tro
pre ad
ish er
ill ary
all ing
for es
ie v
int s
ick en
ta ut
ron s
ha em
me an
der mat
sk i
arch y
bel ly
oplast y
tongu e
kee per
1 01
B en
R I
T S
T ri
b ind
c ogn
i ating
j un
j unct
n orm
s it
s lo
t ide
on er
is able
or ate
un th
as ing
ad ow
ot ox
im port
lo ving
co ura
ry ing
ric e
ha ust
ha ired
let te
met e
col d
ev e
fo x
ear ed
cont ent
sec ond
esth esia
fron t
B on
M in
M ed
d al
d ream
l um
m ore
m ade
p unct
t ender
al leg
ar ic
st o
st iff
ch ant
ch ang
ol ate
ph an
ac anth
ab ilities
em i
os per
op in
ig e
ia st
pro duc
pl ing
ial s
ful s
tra p
ach ed
aw ay
ev il
An n
gu e
lit er
dip l
bod y
sle ep
otrop ic
intel lect
C he
M at
P at
c ass
c amp
d in
d ie
d ors
h ack
i op
n ose
o unc
s ag
t ang
in dis
en es
un er
el ly
ph ag
os a
ad or
oc racy
ant it
lo ud
ind ust
ost omy
cl in
ens ion
ach ing
wor thy
let on
pers u
resp ond
C a
D S
J ac
S tr
T y
f ive
f ellow
j et
l ag
m i
n od
p ower
it ated
st ream
ri al
ia h
con v
com mon
sc ut
av ing
we ather
met al
ma j
oid s
anc ing
hol der
gre at
alg ia
L or
P rot
P lat
S il
a id
b ish
d ur
f en
f ant
g s
p ond
s od
on i
un en
st y
ch t
ra ft
ol in
em pl
am es
qu iet
ce le
pre f
tr it
cl ub
ier e
ular ly
ger y
br and
do or
rh iz
ura ble
sat is
emp loy
fir st
I m
L I
L O
M ah
P o
P oly
U l
U r
m um
s ob
u z
u ate
w ine
is se
ing en
el lo
st im
st ate
il ian
em ber
ad vent
ot a
im mer
ers on
pro ct
ex pl
ial ist
ial ism
ass oc
ep ith
ort ic
ach er
cor rupt
met aph
car b
wo und
br ick
our ed
af t
ail s
ett es
pen et
she ep
ophy te
T rans
b ass
c og
g ib
i ar
l is
n ucle
s que
u er
u an
w ag
w omen
er c
in com
st art
ac cept
th read
em ing
am mon
co at
ast ing
for est
oph ile
ok ing
to ur
met all
so le
oth e
dec e
cur s
leg ged
eth n
work er
mel od
mind edness
fol k
idd le
tongu ed
poss ess
fru it
chur ch
G all
c yl
c ust
d ynam
g th
l od
p ink
v y
v ell
in ian
ic ian
un ivers
ch el
ph arm
th a
em bar
am et
ver n
per it
est im
sub ject
ep it
ep ist
cor rect
car p
wh it
ym ph
ref lect
other apy
lad y
pip e
J o
T ar
b ay
f lex
k at
l ent
t z
t rem
y st
in vol
al ph
ar bit
is th
or ation
it ical
ro gen
om ent
id in
id ness
ur ban
og y
ia e
ip ed
ex ist
ud ing
sc ur
ens it
tra vel
ho und
me gal
row s
ane ous
rel ig
enc ed
ste el
inst ruct
B ab
D an
V ol
W ar
b omb
c ic
d um
e ing
f est
g ym
p lo
p ose
t un
w ro
al o
it ism
it arian
ch rist
om ot
ul um
th orn
op ar
od ynam
la im
sc ap
te en
ak a
ind ul
br ut
az z
ogen y
ther e
ific ations
omet rical
dev il
nos ed
perf ect
C C
D er
H o
J er
c rit
d ition
f la
t alk
st al
st or
ion ally
ist ry
ap point
qu es
ir rit
sh el
pro ph
se ver
ne ut
tr uth
ick er
sem in
so uth
ult ure
tro ph
squ are
eless ness
A ust
F ar
I R
M eg
S ab
g ru
m ine
n id
p ict
u ously
w here
in us
at is
al co
al istic
ar iness
re present
om ing
et al
im al
ap od
non per
non dis
sh er
ip it
ex press
pl en
tr is
mon ey
comm and
mot or
mil it
sac char
sum mer
indiv id
C ur
E M
S her
W ill
b ranch
c rum
e z
f rost
g i
k al
p ain
at om
it ory
st ill
st orm
ol ine
ph ren
ent ness
ant id
ical ity
und ec
ob serv
gl ed
gra d
bra ined
yn ia
head s
inn ing
cal cul
ste in
ste ep
sch iz
cap t
ery th
pri est
rh in
but ton
phot o
resp ons
prof ess
E v
I tal
O L
S S
W al
b ast
c ement
g ot
l ux
m ism
m ira
w al
w onder
in her
un ge
un inter
re qu
el ine
st own
ac er
ac le
ot es
ut ch
og ly
ec on
op ro
ell s
he at
he aven
sc ul
ang led
bo ot
ost om
tra ck
ach es
red e
ma in
pol l
bar bar
ty p
ty ph
An glo
med ic
tw el
och em
dra g
heart edness
clo ud
tran sp
tem por
sym path
cry stall
acet yl
C lar
c rop
d ul
f ine
h id
h ill
k ill
l ingly
l ord
m ers
r end
s i
t us
t ant
y an
in ite
an ism
un v
le arn
st aff
st itch
ra pt
om on
ph or
ent e
op p
ation ally
if iable
la ud
ell ig
se ven
he avy
tr u
ial ize
for mal
par alle
ure ter
ple ment
pos ing
tw in
unn ing
char acter
ham mer
tim ber
gal van
comp ens
exp ect
Pseud o
B as
D em
I D
M en
S w
S el
T ra
g ob
g ain
g rown
h l
k ers
n orth
p ep
is a
or ian
or bit
re ar
ch air
ra ge
ac co
ri ft
im it
ag raph
ap pend
ir ing
av a
be aut
ind ig
sub s
ep id
ran n
ight s
wh is
che ek
anc ies
aff ect
iss a
land s
ste am
cons ider
pul s
eff ect
orrhe a
D i
J an
L and
M et
R ed
d actyl
j am
m ock
p low
t at
w s
w itch
x er
ro mat
ch ief
ra x
ul ose
im b
ant ed
lo v
est abl
co b
co en
ell i
ill ust
ron t
sem id
ah ed
Ã© s
bra chy
ash ed
ink s
bre ast
ict ion
elect ric
roph ic
hous es
comp ass
lab or
bill ed
phys i
Ger man
chro mat
mete or
B ern
P hy
U R
W ood
a ust
c rest
g ol
n u
n ap
t ack
v il
at able
un ion
re b
re ass
re fer
el ph
ph th
ac es
ac ity
ab sor
os m
ter y
im pl
op ing
oc ol
qu int
ip e
com plex
ow s
ub le
up e
we igh
ho of
act iv
let ter
ru ction
gra ve
br al
ax is
back s
oman iac
rec ogn
equ ip
fing er
C ast
D o
F er
G o
I ON
L am
P el
a ult
b ip
d uck
d rum
e ight
g ir
h s
n ur
n um
p ock
r uc
r ator
t all
t ie
u i
v oy
w as
w ait
in vent
at y
ic ing
or ient
st a
ul f
ur us
am or
ad y
im o
ig mat
oc ean
ap prec
and o
sp read
hy n
tr ick
te e
ang ular
ge al
gl ing
gl ad
ve get
mar sh
fe ather
my x
ash ing
ik a
vers e
sm ith
bor ne
vis ion
oscop ic
civ il
B a
B or
C ro
G en
L ev
P r
a ine
c lav
g os
g ment
h atch
l ang
o ot
p ine
z el
ing er
st ip
ch im
id ic
id ence
ul ae
am us
qu art
se par
pre par
ne igh
bl eness
ost ic
ath ered
fe e
bro m
go ing
ail ed
inf ra
cept ion
ili ar
mil k
card i
bod ied
nar row
ape ut
suc cess
brid ge
crown ed
A G
B ol
a en
d ow
f if
g ust
h ors
j ew
m ess
s ig
s ay
u ated
w et
in th
in spir
ar ab
el ig
st ret
et hyl
ion e
ph er
em s
am yl
ad j
um n
iv orous
ig raph
ir id
non ad
su gar
est s
sh ut
and y
ill ion
pr ison
tr um
ial ness
for th
der ing
ult ur
bro ken
Al l
ugh ter
tur b
pat ron
press ed
bel ie
jo int
ocrat ic
haw k
deter min
A B
A mer
C ass
L at
R oman
b ub
f resh
l ung
m itt
n ie
r ar
u ation
u ousness
in ity
on ing
an ne
al tern
re ction
st ers
ch is
th i
ri ver
op o
op tim
ver te
con tr
sh ar
pro cess
pr ick
sc or
ok es
ran ce
her ed
met ric
ann ed
my st
wood s
rid den
acc ess
dom in
icul ate
cut ting
zz le
thor ough
IN G
Ã¨ re
subst ant
D I
F lor
I l
L o
O n
R om
T or
c i
e on
e as
f i
f r
f ather
j oc
l ick
n ational
p ore
u co
al ter
it im
ra ss
ol ytic
ph ar
am el
oc on
non com
con duct
est ing
sh am
sh aw
co ated
pro te
com par
pl as
ated ness
oph en
ta w
tra che
ho ur
cor on
fe ud
bra ch
ash es
cop y
rit is
igh ter
rot ic
ca us
str ate
contra ct
bron ch
quest ion
fash ion
sug gest
M id
M ill
a o
b ond
c anc
d an
d at
d ock
f it
f ug
n an
n em
p ont
s ad
s ir
in ize
in flu
al c
re y
ro c
ch ange
ul es
th row
ag ia
qu ant
co x
sp oken
pre fer
hy al
tr ue
man if
for ce
dis s
ath ed
ov el
we b
ins ur
mo un
to o
gl uc
di am
pol itic
fe ver
tri ple
ign ed
ond yl
go ose
ual ity
pa int
bit ter
atur ed
san ct
tooth ed
olat ry
A F
C at
C all
R eg
X X
Z e
b old
c ros
c ram
f oss
s yl
s omn
v or
w re
an ite
at us
ed ged
it ution
st ir
il ation
ol o
os ed
um a
og lo
og ast
oc ard
ant ine
sp ot
cl us
int ellig
sem if
rat t
ann er
bra ss
tw enty
sn ake
the or
cap ital
cont in
comm end
ett le
rec ip
In d
div ers
mod ern
esth etic
oplast ic
yo ung
princ ip
A ra
H en
I M
P ort
S P
T re
e es
f og
f ret
f ond
g overn
i oid
l ub
l ily
m im
p ian
p sy
s ic
s ie
t ag
u el
v apor
w r
w rong
in et
en su
at ri
ic ide
un def
le b
st ren
il ize
ul ter
ent ially
th rough
em bro
am ide
os yn
op ic
op ia
ig erous
ant in
lo ad
con serv
co el
sp ong
ell ar
ib ilities
pl ag
pr ud
cl ar
int im
tra g
ho e
pol ys
fo ul
cer n
inc re
pur ple
form ing
flow ered
bol t
sym bol
sper mat
bear er
C as
M es
M ur
M os
O T
T am
W est
b ree
d ou
f y
f id
f rog
g ur
h ast
j ol
j um
k an
l amp
p anc
s ne
s old
s burg
u pl
v io
x es
er er
en erg
at ives
al ities
ar ct
it ous
le vel
st am
st ruct
id an
ab stra
ut ing
od i
ap a
ap ple
ip per
pro pri
de vel
ish able
hy pers
ob ed
pl ot
mon d
ha phy
ev al
bar e
ox al
tri p
my r
du ction
cap it
plic ation
smo ke
J e
N o
P le
R ich
T al
T im
b uc
c ies
c ens
c aut
c osis
d iffer
e leg
f ill
l ater
m und
m ust
m uck
n ine
p and
s au
s angu
t art
v id
w ester
un fl
el ab
el ite
st up
ch et
id ol
ul ative
ac re
ab sol
ist le
ag glut
ig ne
oc occ
if lor
sp o
ell es
he ath
ob s
ne ar
sc ope
ated ly
ry pt
be am
ay a
cl es
mo id
to id
act ed
po ison
ight ed
ma z
fe ed
ik i
ail ing
lin es
sup port
phen yl
pon der
lich en
ranchi ate
B u
B rit
G il
G len
O P
O l
S E
S a
b ent
b ru
b ore
d end
d ub
d ens
g ill
k ish
l ink
l aryng
o in
o idea
p ell
p ush
p achy
s oph
u ction
w olf
y rin
on al
at rix
it ure
re ce
ro me
el and
st ub
ch uck
ra h
ul ates
em bra
og ue
ag a
ant on
con vent
sh ed
pro b
de hy
ex ped
pr en
man s
for et
bl ess
ov ed
act ing
act ive
gl es
met hod
sem im
ev ille
rop od
fe as
bro ok
stra w
rub ber
plat y
spe ed
gold en
draw n
disc ip
tuber cul
pharm ac
A U
C her
D am
D ec
N eg
P a
S ta
b un
c ous
c ach
f urn
f asc
g ad
h ort
p ly
p ull
s ort
t id
t ens
on ism
es es
at ical
re im
st ad
st alk
ch op
ch ir
ion ic
ac iously
ab out
ut es
ter ror
su it
co ok
sp oon
ud es
ud ge
pr is
sc ot
ug n
ay ed
ay ing
oph on
ge e
ure th
mo or
let ed
mat a
ton ic
au th
rat ive
our ing
head edness
sw ift
rel l
ker at
sor row
gri m
lem n
soc i
prop ag
bott le
alb umin
C L
F red
G a
G reen
K er
L u
L yn
R h
R uss
S an
a un
a im
f ut
f ung
g ird
i per
j ig
k el
k id
l aden
o ing
s word
v ass
w ho
w rap
z ar
al ised
ic ip
ic ient
or der
ch ain
ac ed
ac ad
ac iousness
de p
ex ecut
sp otted
se e
se ism
se vent
pre ter
he im
ill es
all er
ect omies
ass um
pe arl
ure a
ha ul
mat ical
gl ac
ma ke
ith ec
wh at
ung u
mar ked
tri m
gu ar
ree k
du od
ank ed
the at
work ing
exp ans
cr ust
thor ac
oxy gen
C yn
L ong
S o
V ir
b if
b ie
c is
c id
c ine
c ritic
d it
d ot
f und
f ied
g ay
k it
k ick
l ies
l ace
n aph
p um
p av
t ig
t ext
v ap
v ex
w ife
Ã ¥
en ite
ar is
ar ith
ic he
ic ated
or b
ing ton
un bl
le ather
ch il
om es
et i
ph em
ul ator
ul ations
ac cent
em or
ad vert
ad minist
ot ome
ist a
qu it
qu il
ver b
co up
sp ace
sp lit
ill i
ill umin
ne ver
for g
pt on
ass ert
wor ship
mat ically
gl or
met hyl
so u
gra du
fer til
unc i
sw ing
tro t
dem i
aph yl
eg g
ca ke
cat ch
form ation
bal d
tran sc
vo iced
ocy an
fra ct
cond ens
appro pri
sph er
ophthal m
twel ve
A lex
C re
D u
G old
K al
M as
O t
S C
S u
T ro
W el
c ip
f arm
f rag
k ar
l angu
m un
m ug
n im
p ard
r ism
t ell
an ia
at ically
un he
le en
st ag
ur in
am per
ot on
ot omies
ri age
od end
su d
lo ose
con vers
pro to
und es
ib il
all en
yl ike
tra in
cy m
pe g
mo le
to ol
to ad
ha emat
po ur
sem it
wo e
ton s
ty m
ann el
fe ar
cal y
cent ral
ank s
ari us
omet rically
squ am
cri m
arian ism
emb ran
exc it
flo od
stri p
Wh it
cand le
nec ess
fav or
dehy de
A k
B y
F ul
L in
O C
R am
a ire
f ring
h ir
k ary
p is
p ans
s well
t ob
w y
w en
in ce
in ism
on n
ar r
ar ious
ic ht
ra sh
ra de
id o
ent re
ent om
ab s
am i
ri val
op ex
oc ry
od ic
ant es
ant ness
ip ter
la h
sp ark
ell en
se ek
pre v
he e
he el
com pet
ial es
be an
ind ec
ect om
int ens
ack ed
ov al
ok er
mat ch
gl er
gl ish
aw a
gra c
ire ct
az ine
des ign
etic s
kn ot
gal act
eless ly
hyp not
hydro gen
fact ion
cla im
neck ed
Joh n
C orn
D A
F l
F rench
I P
P ur
T her
b ran
b ase
h ind
j ob
k ne
p age
r ations
s ong
u ed
in ating
an il
un ap
un te
un man
un equ
st uff
ch ord
us er
om eness
ul atory
ac ia
ac ry
ac cord
ab il
ab et
am ber
am eric
im es
im press
ag gress
op sych
iz en
per pet
ip ot
co u
ex hib
sp eck
pl ane
sc y
ind a
ect ive
fl esh
up per
ace a
mo ist
col our
An d
unt s
ink er
ey es
leg is
reg ard
trans fer
rid ge
acc um
char ge
cri b
alk al
spir ited
cr uc
point ed
cond ition
sid ed
oblast ic
Bra h
tol er
need le
alco hol
A le
B re
C ath
D en
D av
F R
G l
H or
L ib
M E
P en
S im
S cot
W y
d ess
d ir
e el
e ast
f s
f ell
g irl
h ul
h as
p eck
r all
z inc
z ym
in as
en f
an us
at en
ar row
le ft
ch ole
ol er
et on
ul ent
em aker
os o
os ome
ad just
im ag
op l
od actyl
qu a
lo qu
pro m
ex amin
pre m
par aph
ect s
mon arch
sy st
pe ar
pol lin
eter min
fer ment
An th
gu er
cop per
che er
rig h
ax on
pal at
can on
ee ch
Pro to
read y
ext ens
ote chn
hyp oc
iment al
oty p
const ruct
fre qu
sho ul
oder m
osp ore
rhy th
cham ber
produc ing
A ct
D E
D ur
F al
G ab
L ou
M A
S lav
e in
f ist
l est
n ect
s ow
t as
v illa
en gra
an ap
al ty
ar es
or o
un it
un ob
re pe
le uk
el in
st ing
et to
ph ra
ul in
th ous
th umb
em ble
am al
ad mir
ut il
ig ation
ant ist
lo ph
and e
co ach
pro duct
sp ear
se ason
pre gn
he ar
ast s
sc ra
sc ient
par ap
oph one
oph orous
ep is
mis er
we en
we ek
pe ace
low er
mat ous
ight ing
ma int
aw k
pol it
ung en
ann ing
ger man
men ing
ou ch
leg raph
och ron
ank er
pan ic
val id
sil k
dist ribut
orth od
dri ven
board s
ophil ous
fib ro
fort un
stre et
boro ugh
inte gr
Jac ob
wro ught
H art
L em
S um
a ins
b im
b ust
b ach
b aw
c lay
d un
f ab
f are
h ad
n ame
u ary
w right
Ã ¢
Ã §
ed ge
ar gent
is ol
un par
le pid
st air
ch as
us k
ab i
ab er
am pl
ad apt
ri um
ag ree
iv a
and ro
la id
ex ec
sp an
se al
se lect
und el
ob ranch
ke ep
tr in
tr id
sc i
sc and
end a
end or
ang s
yl s
ack er
we et
low s
cor respond
ock ed
me at
met ro
so ap
ular ity
fer n
ign or
inn y
gr ind
att en
sn ap
pat ch
agn et
part icip
str uck
osph ere
bell ied
cot ton
Mc C
ophag ous
otrop ism
itut ional
liqu id
mater ial
A z
A ug
C E
G r
L ab
L im
M P
M ol
N E
S ph
S av
T hor
b io
b apt
c uss
e er
e ating
f ind
f rat
g il
h il
i ad
i ator
p au
p last
p unch
r ally
s op
s af
t act
on ne
ar bor
or c
or ical
un sub
re pt
st ones
us ur
om it
et ting
ac a
ac ies
ab ber
th ym
ut ation
ec al
ers ville
ant al
ant ing
ant if
co ag
de er
la in
und ist
ke ys
pl ur
sc rat
end o
for ec
bl ank
ta ke
ta ined
mon os
li ed
we ary
sel en
low ing
gl and
po or
gra in
under stand
rop ter
post er
du ce
iveness es
cra w
stra p
sil ic
she et
Ne o
lip ped
lib er
igen ous
vio let
D C
G ri
H eter
L ind
O ri
S tra
T o
V en
d os
f rank
g ag
j ou
k le
l op
m op
m ile
m old
n ail
n ull
p oc
s omat
s yllab
w ave
w oven
y ne
es cap
an ac
at um
al ien
ar ial
is an
ic y
un be
un sl
un cont
it ative
re ason
el ian
st an
ch ast
ra k
ac commod
ur ation
as al
as pir
th on
qu i
su pr
if ol
if iers
pro st
sp ell
pre vent
ill on
ast ro
tr es
tr il
for ward
bl oss
par al
ach t
ock ing
me al
led ge
arch it
cop e
aut oc
ater al
ain ed
pet t
ern al
ner v
ress es
squ ir
cons ult
heart edly
str icken
Le on
cour se
rous ly
rif ic
book s
iet y
ray ed
fir m
new s
gh ost
grow ing
nov el
publ ic
bir th
hos pit
intellect ual
cyl ind
abstra ct
C ir
C ard
D al
D ol
E st
J ul
O d
P ers
S p
b rig
b eck
c ence
c ret
c ott
d ull
g ement
h ut
i ably
l ance
n el
n ud
p ag
r uss
s phen
t ul
t orn
w and
at tract
al ve
or ac
re ve
st ru
ch us
ch and
ch art
et o
ab dom
am n
os in
ot in
ut en
um at
og yn
ec onom
ag re
od s
non inter
ver ted
con ven
pro ud
de e
for mat
ind uct
ect ic
oph yt
ep iph
fl ash
ack now
res cent
ure l
so oth
ograph ies
sk ir
che e
des er
bre aking
enn ial
pres um
pseud os
ca ul
arm s
acc us
hom oe
cons ist
hyp n
wind ow
tre as
eng ine
amph ib
cu it
quad ri
orr haphy
ogam y
osaur us
ocarp ous
plo ugh
B ul
D is
F air
G ood
H um
K at
P ri
P ap
P aul
R od
T R
T om
d well
d umb
f ran
k iss
l amb
m ec
m ell
m ale
m uch
n ote
u fact
z ig
en chy
al m
ing ing
un ar
un cl
un iform
it ating
re vers
st rid
ch at
ch ev
ra it
om el
et ter
ph aryng
th rom
em ig
em atic
os al
ap an
ap olog
con sol
de prec
ell ip
pr Ã©
over e
sc rut
end ent
te a
ak ers
av al
par a
ay an
yl ed
yl ene
fl ame
ma il
so lemn
min im
ograph ist
wh el
bar on
An t
sl ender
dec or
dec om
att le
omy cet
ush ing
reg ist
sm art
ze al
bon es
uro pe
comp let
ject ion
oll en
plic ate
mus ic
anal y
fa ith
gn ath
conc ili
spec ial
aryn geal
hon or
fal se
hypo th
pneum at
Christ ian
opath ic
itud in
cheek ed
A th
A ri
B ow
B ay
H an
H ay
K en
L ar
L aw
M ass
M ich
N ov
P C
S in
S en
d ies
h it
h ug
i ates
j ib
k om
l ack
l ins
m oss
m oll
n am
n ag
n ost
p ile
p uff
r s
r ion
s ett
s ext
u y
v acc
w on
y ar
y ou
in os
an ian
at m
ed ed
al ise
ic ist
un qu
un lo
un res
it ors
re ven
ro ma
st omat
ch it
ch amp
il ib
ac in
ent ion
em ed
ot te
ot ically
ag le
op ard
od a
con e
sh ri
com a
com ed
hy post
bl ers
bl enn
bo om
mon opol
tra dition
cy n
inter rog
ov es
ust ic
wor ms
sy stem
ins ol
to ed
met ry
ty rann
cer tain
ple uro
ble phar
des p
att end
cur v
mal le
bre asted
py ram
ven er
enn a
tro u
land er
rom antic
roph ot
cra b
ref ract
str ang
mus k
occ as
tre at
odont idae
quin qu
Am ph
udd le
dr unk
sen su
EN T
antim on
Bl ack
fing ered
evol ution
individ ual
B at
I A
I F
K ir
M ax
N orth
P O
R hod
U T
b ang
c ity
c uck
d and
f oc
f ted
f illed
f emin
g over
g ier
g amb
g ross
h is
h und
h art
j i
j ub
k ol
l ia
l ug
n umer
o ic
o ir
s men
t og
t ier
t ile
u ce
u ating
u vi
w ink
w hole
y ield
an ed
it ish
it ively
il ate
ul ant
ur ate
as ic
ab o
th us
ot ism
ag h
iv ism
ig o
ig ate
od ynia
ant ib
ir rig
ver y
per is
con cept
sh ad
co le
pro top
pro gram
la ugh
sp at
ud a
ill us
pl er
pl ess
all oc
ae us
ff er
for k
uc ed
cl ock
ub a
fl am
cy clo
ator ily
ric es
mo th
one ph
let t
gl ott
met h
sem ib
ev angel
gra ce
ann ex
sk inned
sn uff
bre aker
hyd roph
och rom
ition al
pur su
unn y
hol low
war rant
gro up
mod er
mid dle
mit ted
omorph ism
gri ev
bri m
phosph or
adv ant
rict ion
ipar ous
emph as
ogly ph
' ll
A f
B arn
D ev
E le
F rank
G es
G ro
J es
K n
L A
M yr
N ot
P ic
P ent
P as
R S
S us
S em
S and
S ub
S pan
T O
T et
b ail
c rat
c ane
c ris
f as
g iving
i ative
j an
l id
l ut
l umin
m ish
w ast
z i
Ã Ń
ed itor
al is
al ian
ar ine
ic er
un pl
un rep
re com
le th
us ia
il der
et z
ab e
th reat
ad os
ist e
ist ers
im in
op al
op per
ap ped
qu ill
non def
per t
per ip
con cer
con cent
con form
sh ap
pro portion
de part
pr or
ow ing
sc atter
ak i
ak y
av ers
pt ive
be h
bl u
uc er
int on
ath emat
ass er
ass es
ep ip
fl ies
ort ed
ator ies
res e
we e
to e
met rical
ev ent
ev apor
row ed
ult ural
wh ir
mer cur
ling u
fe atured
unc le
hyd ra
go at
pal m
ery thro
pseud oc
rol ler
ward ly
syn th
syn chron
pred ic
stra it
pi ec
del ic
ele v
scri ption
ER S
mind edly
dev ot
line ar
fa ult
fact or
opt ic
ios ity
pig eon
horn ed
jur y
hu ed
vul gar
room s
tox ic
rib bed
cult iv
ju ven
gentle man
roof ed
indust ri
A v
A ch
B art
E th
G i
H on
L ow
L aur
M ess
P om
P res
Q ue
R ad
R ay
S aint
T hom
a ec
a ub
c anth
c ren
f iss
f right
g ie
g au
l ur
l ud
l ign
l amin
n oth
r ide
s lav
s ider
s iphon
t inted
v end
w her
x x
in oc
in de
en al
an em
an chor
al umin
ar ism
ic les
or ism
or ously
un i
un self
el on
ch ia
ch est
ol ed
id en
ph one
ul ously
ent ral
ot ri
non im
non sub
sh allow
ip ped
de af
ex ter
ex ual
ex tern
se arch
pre en
pre ex
he it
hy men
ast on
pl umb
sc ab
sc iss
ang a
be et
par ent
oph ob
cl iff
sub ter
ub b
ep iscop
ens ive
up le
ick ed
ick ing
ta ch
inter s
to ugh
cor e
her b
rop ic
orn ament
dec ol
bro ther
aff ir
pres by
ousness es
mult i
cir cul
flu id
jo in
jo inted
flow ing
sa fe
fil m
gri p
anal og
spect ro
gly cer
rolog y
clim at
bott om
Tur k
lik eness
mem or
meas ure
thir ty
manif est
auth ent
A dam
B E
B ell
B our
C M
D y
D ra
H ard
H ow
M ach
M ary
N ic
P ter
S har
c n
c rin
e ul
f em
f ile
h et
k ines
l il
l uck
l ute
m ens
o ke
o ise
p ated
p ub
u ity
v iz
v all
w yn
z ie
al ising
ar ach
is y
it i
it us
re mon
st arch
ch on
ch ic
us ively
om ous
om ast
et es
id ered
ul o
ac ular
ac compl
ur i
ab and
em as
em bl
em aking
ad ip
ous es
ist ing
ec ret
ap pl
ap pet
ap prehens
qu ot
ant agon
sh y
de uter
sp r
sp ic
com pos
hy pot
ke eping
ne bul
pr ise
all s
over t
sc en
sc ro
end oc
te in
for c
dis par
be ad
be ard
bo u
bo ats
cl usion
yl on
yl ess
mon oc
ge on
inter n
li ament
res ur
ok y
ber y
pe ach
ric s
mo urn
gl omer
met ap
so on
bar rel
mar ble
mar ket
tri v
bra g
orn ing
dec k
leg itim
sol ic
dra mat
trans l
Ã¤ t
pur g
rep ubl
pot ent
anti qu
conf ess
flu x
weed s
tem pt
lib eral
phys ic
opod a
beg gar
fri end
clos ed
oplas m
coun try
dod ec
ĠĠĠĠĠĠĠĠ ĠĠĠĠĠĠĠĠ
revol ution
osc ill
neut ral
crest ed
A ut
A ss
B lo
C el
C rypt
F e
F ab
G E
H aw
L ang
N a
P H
b ism
b ite
b ait
d ib
d aw
d read
e al
e uc
f ath
f als
g ian
k u
m end
m ight
p ia
p ate
p aw
s ack
t unn
Ã ®
an as
ar rang
le agu
el astic
st out
st ool
us c
et ch
ent ing
em y
ad am
ut a
ri pe
og g
og s
ag ra
iv en
ig ated
od al
per iph
per iod
con fer
de fer
sp lan
pr ere
tr ench
ff ic
for ed
av el
ry s
bo ys
oph ora
cl ed
int ox
ta ins
ach ie
wor se
ron ic
let y
gl ig
car pet
min ister
ton ed
Ch am
lect ion
ser pent
cer emon
anth us
att ing
cent er
och lor
tro m
hem i
Ar ist
off s
rol ling
vers ion
uss ed
del iber
tran sport
antic ip
occ ip
oz on
hel p
liv er
ophil ic
udd ing
emp ir
spl end
flag ell
cloth es
Pal ae
fam iliar
Te ut
fun ction
contro l
otox in
cele br
B ry
C R
E p
G H
G ib
H ur
L en
M O
R es
S or
S ha
U m
a ic
b om
b end
b ane
b eth
c amph
d ers
e us
f ang
g own
g oss
h ing
l ant
l ard
n oc
n oct
n ymph
p ug
s ized
t ann
v ast
w ain
w reck
in ia
an on
al la
is ch
or ange
it iously
ro ut
st ed
st ay
ch ick
ch anc
ch arm
ra st
om ical
om phal
et ted
ac ar
ac count
ab el
ot o
ri min
ri form
op isth
oc ular
iz a
ant il
sh ev
ex haust
ell ers
hy ps
ob acter
ne o
dis pens
dis crimin
ost at
cl esia
int end
ass im
out w
tra de
ok s
pe op
ho op
red is
col um
under t
ger min
bra dy
aut os
rig ged
ax es
do ugh
sw an
enn y
ush ed
tro ch
por ter
reg ret
ett i
sur f
cons ec
part icular
iousness es
top ped
cut ter
pul ver
thy ro
scri b
tem pest
iac al
phen omen
rif y
ops is
extra ct
AN D
serv ice
chlor o
rab bit
stand ard
dim in
root ed
conn ect
Ge org
spirit ual
appe ar
cate ch
ozo ic
hus band
build ing
persu as
bish op
B la
B uck
C ent
C la
G oth
H O
I sl
K a
M aur
N i
O s
O ph
P har
S emi
V ar
b ard
c ort
c ili
d ign
d oll
g ene
k on
k as
m oment
n ia
n our
n ik
o at
s is
s ore
t ower
v inc
w ur
w inn
z an
in vit
in spect
es per
en ia
un conf
it ary
re form
re jo
el der
st ates
ch aff
ra ven
ol um
ol ys
om us
om ely
ess a
ul as
ul ary
ad vis
ot al
ut t
og a
op aed
ap plic
ant ig
con jug
con cert
est ic
sh ield
sh oe
ip ping
and ra
ex pos
sp eech
ib les
ke en
te as
be arded
ay e
oph yl
oph ytic
ass ign
ta chy
mon s
ful nesses
li x
ok a
ber e
pe ac
ure ly
mo unt
po on
met amorph
ru e
col lar
fo il
ret in
ted ness
mar g
my ri
uns ur
istic s
reg ular
hand edness
dra gon
Ã¤ Ã¤
but t
mult if
ben ch
imm ort
inst rum
exp and
bas ket
iment s
ball s
bet ter
lock s
box es
fall en
ocephal ous
mous e
writ ing
olith ic
jour nal
breath ing
brow ed
bene fic
opin ion
pep per
tym pan
hund red
A y
A ud
C A
C e
D O
E s
F ra
G or
G ran
H om
H igh
M ul
P ed
P or
R us
S pr
S yn
W ol
c ia
f ris
h ub
i ability
i ological
j ing
l ament
m ild
o er
o ak
p able
p ump
s yll
t ess
t ank
x im
y outh
in ist
in ely
in def
an ist
an ize
at ine
at ry
ar ra
is en
ic idal
or ious
or ium
un al
it on
it ably
re co
re vel
re cord
le a
ch yl
il ated
ol is
ph leg
ul tr
ac s
th re
th ur
am az
os ities
ad ren
ad elph
im ped
op a
ig ar
qu am
con sul
est one
if fl
pro ject
ian g
he ars
com merc
ast ically
pl ug
ne glig
man ufact
for ty
ie u
dis pers
dis sol
ind le
int y
ack ing
mon o
sy phil
ok in
pe pt
pe ople
ins ist
ace an
low ed
her d
ru f
der m
ah l
fer ro
bur den
dec lar
che ap
des cri
cur r
sw itch
tro l
du plic
iform es
vol at
inf init
pra g
rum s
vis aged
acc eler
pen se
atur es
lim bed
len gth
amin o
other apeut
Con st
lay er
dam n
day s
opod ous
opter yg
soc ial
ophyll ous
sound ing
icol ous
stom ach
ocent ric
cust om
scul pt
acknow led
A h
A del
C T
F F
G y
H ad
I E
J ew
O c
P E
P ier
P hyl
R u
a el
b und
c ater
d eli
g ic
g om
g id
g ingly
k am
k enn
l eness
m embran
n umber
p ane
s atur
t ine
t ars
w ol
w ish
w rist
y ed
y ak
er man
in en
in able
in oid
es i
al ite
is is
is chi
un rel
it ant
re per
ro th
st um
st age
st ore
ch alk
th ank
th ird
em n
ad der
ad vers
im an
ag ers
op press
oc ta
od le
ap ter
ver min
lo st
con dem
sh a
sh rew
co id
ex cept
ex erc
ian ize
und o
com bin
ill ar
tr uck
ie ux
ug al
be ef
ost ra
int ing
int ent
ass a
ort s
inter fer
ran e
act s
cor ro
mat es
di ap
di agn
rat ic
ox in
ox ide
An gl
tri um
tri gon
gu id
ile ly
arch ic
cal am
gr um
ax y
enc ing
sch ol
the ast
har sh
vent ric
kn ock
kn ife
pra ise
rh od
by e
vis cer
add y
mult ic
hor iz
In do
cre am
zz led
exp lo
light ed
tor ment
vir tu
plan et
agg reg
spe aking
ever y
sper m
bab y
blow n
subst anti
imet ry
neg ot
agog ue
gyn ec
chond ro
Fran co
subl im
stain ed
temper ed
maid en
lux ur
paralle l
oglo bin
prom pt
B rown
C lo
C our
H il
H all
I V
L es
M M
N ar
P od
R A
R ub
R ock
S id
T art
a an
b ak
b als
c ure
c law
d art
d ling
d led
d ler
d acry
e up
f ust
f rig
f ren
f ancy
g iest
h ide
i let
j ail
k t
k or
k ib
k ok
l ott
l aps
o an
o ul
p ous
p ins
p enc
s addle
v ale
w n
w ir
in form
on ically
en ary
ed om
ic iency
or ousness
un ed
un av
it u
el f
st ol
us a
ra ment
ol ing
ol itic
ab as
th io
os se
ot ten
ot rophic
ri k
ri mon
ec ed
im person
op es
ap ping
non cont
per y
con tribut
est y
sh ro
sh ear
sh adow
ian o
com ing
ud er
sc ale
ie w
be er
int est
fl atter
ach romat
ha unted
act or
sem ent
so f
pol ym
ve ined
bar red
mar ch
cer eb
ign s
ong s
anth e
cur rent
hyd ros
py r
ps is
inf ect
ca ud
kn own
cat al
acc ident
uff le
pen it
pa ed
dist inct
div is
prec ipit
hood s
prot est
enter tain
omorph ous
oty pic
fra me
rif ied
pop ular
prov inc
hed ge
doub t
flo or
ophag y
gel atin
suc cin
spe ak
pens ion
burn ing
Wh ite
ocephal ic
imet ric
neg lect
natur ed
nob le
itud es
bacter i
pow der
moun tain
diam ond
legis l
syst emat
splan chn
A A
B O
B an
B et
B ac
B os
B ir
B urn
B rad
C ow
D in
D ic
E u
G ym
H ip
H ind
I O
J u
J ack
K or
K ur
K am
M AR
O p
P ot
P enn
R em
c ush
d ab
e cho
f ag
f ruct
h m
n is
n ell
t oll
w ist
w agon
y on
y aw
on ge
es cal
es ome
es ophag
en am
en oid
en osis
en vir
at tain
at tribut
al ic
al der
ar ize
is ot
is op
is ement
or ator
un trans
it he
re cept
ro le
ro ch
ch au
us iveness
ra sp
ra ke
et alous
ph a
ul iform
am eter
ut ely
ec clesia
im ic
im prov
im agin
iv oc
oc ial
ap o
ant a
ant ism
ant ry
per e
per ed
per ine
sh in
pro gress
de press
sp ider
ian th
und a
ill as
ne ys
tr unk
sc rap
be ak
ind ict
oph oric
ath a
ath s
ep il
ens es
ort ion
inter pret
ov a
ach ron
we ap
car ry
col leg
min i
min eral
ve h
wh irl
ular ia
oth ec
ah u
mar ks
ann y
fe athered
tri g
gu an
mic rop
sl ack
sl ide
dec ar
of ib
pos es
inc ident
ik in
ane ously
gr ub
ting u
ler y
hyd rate
iss ion
io le
tur ed
zo ic
dra ught
Ã¤ Ã¤n
pur ch
sal ping
ade qu
bel t
add ress
pa id
ency cl
gre y
icul a
dist ingu
prot ect
blo om
va ult
inv ig
opt osis
sho ot
blood ed
sign ific
nit ro
acqu aint
mann ered
fig ure
pleas ure
pneum on
tip ped
writ er
itut ed
orch est
oco el
cate gor
comb ust
peric ard
orig in
gym n
trum pet
lub ric
devel op
B ob
C ho
C amp
E ug
F in
F il
G reg
H u
H ed
M it
M ari
N y
O k
S at
S outh
T hy
W a
a ient
b ility
c ash
c rank
d ag
d ell
e ut
e ury
f lax
g us
g ow
i amb
j us
l up
l ash
l ittle
p ure
r ural
s wo
s ult
s led
t iger
Â «
Ã ´
in quis
an ag
at ism
al um
ar gu
is land
or h
or ize
un as
it iveness
ro u
st s
st ur
st ation
st ress
st rew
st aphyl
ch ore
us her
ra e
ion ism
id ate
id ge
ph le
ul oid
ac us
os y
os ing
os ia
ot ry
ri le
um ed
ec ess
ag ne
op son
op oly
ig an
qu at
ant ep
non co
ia z
ver d
per ist
lo ft
sh ir
sh ack
pro cur
pro log
de ut
la k
ex is
ex plic
ell ation
hy gro
hy mn
ob long
ob enz
ast ron
ast hen
ke el
ne a
all ic
sc ape
end able
te legraph
pt y
oph osph
cl ing
inter med
ov ate
res er
we ep
ins on
mo ul
ho ea
car cin
di et
di abol
row ing
ve in
mer e
bar n
fe eding
br ill
An gel
bra zen
ser mon
arch ae
of t
gen cy
inc ur
az o
az ar
ax illary
eth ane
ven om
enn es
ars on
dem and
pat ient
the olog
den omin
pri ze
cul ate
vol can
vol ution
rol led
comm it
kn ight
can non
acc ust
ional ity
char ged
St an
bon ed
unk er
emb od
prec ed
pin ch
scri bed
other ap
bird s
odont ia
arth ro
wa ist
lam y
glo b
omer ic
dig est
rab ly
opter a
agon al
nut rit
urg ical
fed er
dol ich
thro at
iqu es
fru ited
mach ine
vig il
exper iment
sob er
perit one
Amer ican
opex y
righ te
archit ect
A sc
C ad
C op
F ort
H is
H ib
J on
J un
K u
L ud
L eg
L ew
M T
M u
M az
M aj
N ap
S O
S i
S ac
S ur
S yl
S pe
V ed
Y or
Z o
b ary
b ung
c occ
d ate
d up
d les
e ater
f ow
f ty
f elt
g t
g ence
h ect
i ard
j ay
k nee
n Ã¤
p ies
r ina
s ine
s und
s ang
s ax
s cour
t ib
t ire
v at
v ow
v ene
w ad
w ald
er ite
in idae
es ian
en ers
an x
ed ict
un ass
un rem
un rest
it ten
re le
re ma
st ink
ch ill
ch ow
om i
ess ential
id el
ul ousness
ac cur
ur on
th rust
os ar
ut ions
ri ot
ag ic
op us
iv ory
ation ism
od ial
per for
sh ore
if s
co y
co in
co ast
pro hib
de put
de acon
la ke
ex am
sp ire
se eming
und en
und iv
hy th
hy brid
ob il
ke it
ne at
dis put
ang ium
be au
par at
par ab
ay er
bo ut
ass ed
ick y
ta it
tra v
ge ar
art ific
li que
res ent
ron ed
pe a
pe as
cor k
cor rel
mat ism
au ch
ret ic
ret urn
ted ly
eter n
An ton
sl um
tw ig
ik s
az ot
bro om
sn o
uck er
uck le
mal t
bre l
bre vi
bre eding
que en
rel s
por phy
hem is
tur es
hand ic
pla int
ele ment
ild a
equ ilib
sup pl
sup press
band ed
bul b
dri ve
bat hy
En glish
liv ing
prof it
contra dict
sulph ur
lock ed
suff er
lap ar
roy al
ogam ous
dish on
jour n
yllab ic
stro ke
sight ed
coun sel
embar rass
omot or
stren gth
sold ier
elab or
iflor ous
acad em
americ an
advant age
B L
B ed
B ER
B erg
C ab
C ong
D un
D ip
E gy
F O
F S
H ER
J os
J ust
K an
L an
N A
N er
N em
O ct
P re
R ep
S ax
T E
T a
V an
b ist
c uc
c inn
c amb
c rot
c rem
f itting
i w
m ie
n ab
n omin
o un
o est
o unce
p se
p ang
p ach
p ied
r ange
s ib
s ill
s me
t ac
t ard
t ure
t ink
t read
t ired
u ve
u als
v ier
w if
w rink
w aters
x iph
er ie
en joy
ar on
ic ize
or ist
or se
un is
un fe
un rec
it ations
le w
le ys
el es
st rom
il ine
ol us
ol as
ol ia
ion able
id ently
ph as
ph ase
ul li
ul cer
ul fur
ac ing
ac etic
ac compan
ent i
ent it
ab und
ter m
ter rit
im post
im part
im pression
ag ric
oc ation
ap oc
ant y
lo x
sh ag
sh od
sh irt
if ically
ical ism
and ers
co uch
de g
de vi
la ve
he ir
com plic
ob ser
ast y
tr ist
all ot
end ers
ial ized
te ach
man ip
av an
par ch
par ty
bo th
ass ist
ta ught
mon key
ely n
res ult
ins inu
ho ot
red ist
ha i
act ual
mat ur
der iv
ma h
sem il
aw s
ev ed
gra b
gra s
gra de
min th
ult im
au ra
ann ih
bra s
sl im
