{
  "version": "1.0",
  "truncation": null,
  "padding": null,
  "added_tokens": [
    {
      "id": 0,
      "content": "<s>",
      "single_word": false,
      "lstrip": false,
      "rstrip": false,
      "normalized": false,
      "special": true
    },
    {
      "id": 1,
      "content": "</s>",
      "single_word": false,
      "lstrip": false,
      "rstrip": false,
      "normalized": false,
      "special": true
    },
    {
      "id": 2,
      "content": "<pad>",
      "single_word": false,
      "lstrip": false,
      "rstrip": false,
      "normalized": false,
      "special": true
    },
    {
      "id": 3,
      "content": "<unk>",
      "single_word": false,
      "lstrip": false,
      "rstrip": false,
      "normalized": false,
      "special": true
    },
    {
      "id": 4,
      "content": "<mask>",
      "single_word": false,
      "lstrip": false,
      "rstrip": false,
      "normalized": false,
      "special": true
    }
  ],
  "normalizer": null,
  "pre_tokenizer": {
    "type": "ByteLevel",
    "add_prefix_space": false,
    "trim_offsets": true,
    "use_regex": true
  },
  "post_processor": {
    "type": "ByteLevel",
    "add_prefix_space": true,
    "trim_offsets": false,
    "use_regex": true
  },
  "decoder": {
    "type": "ByteLevel",
    "add_prefix_space": true,
    "trim_offsets": true,
    "use_regex": true
  },
  "model": {
    "type": "BPE",
    "dropout": null,
    "unk_token": null,
    "continuing_subword_prefix": null,
    "end_of_word_suffix": null,
    "fuse_unk": false,
    "byte_fallback": false,
    "ignore_merges": false,
    "vocab": {
      "<s>": 0,
      "</s>": 1,
      "<pad>": 2,
      "<unk>": 3,
      "<mask>": 4,
      "!": 5,
      "\"": 6,
      "#": 7,
      "$": 8,
      "%": 9,
      "&": 10,
      "'": 11,
      "(": 12,
      ")": 13,
      "*": 14,
      "+": 15,
      ",": 16,
      "-": 17,
      ".": 18,
      "/": 19,
      "0": 20,
      "1": 21,
      "2": 22,
      "3": 23,
      "4": 24,
      "5": 25,
      "6": 26,
      "7": 27,
      "8": 28,
      "9": 29,
      ":": 30,
      ";": 31,
      "<": 32,
      "=": 33,
      ">": 34,
      "?": 35,
      "@": 36,
      "A": 37,
      "B": 38,
      "C": 39,
      "D": 40,
      "E": 41,
      "F": 42,
      "G": 43,
      "H": 44,
      "I": 45,
      "J": 46,
      "K": 47,
      "L": 48,
      "M": 49,
      "N": 50,
      "O": 51,
      "P": 52,
      "Q": 53,
      "R": 54,
      "S": 55,
      "T": 56,
      "U": 57,
      "V": 58,
      "W": 59,
      "X": 60,
      "Y": 61,
      "Z": 62,
      "[": 63,
      "\\": 64,
      "]": 65,
      "^": 66,
      "_": 67,
      "`": 68,
      "a": 69,
      "b": 70,
      "c": 71,
      "d": 72,
      "e": 73,
      "f": 74,
      "g": 75,
      "h": 76,
      "i": 77,
      "j": 78,
      "k": 79,
      "l": 80,
      "m": 81,
      "n": 82,
      "o": 83,
      "p": 84,
      "q": 85,
      "r": 86,
      "s": 87,
      "t": 88,
      "u": 89,
      "v": 90,
      "w": 91,
      "x": 92,
      "y": 93,
      "z": 94,
      "{": 95,
      "|": 96,
      "}": 97,
      "~": 98,
      "¡": 99,
      "¢": 100,
      "£": 101,
      "¤": 102,
      "¥": 103,
      "¦": 104,
      "§": 105,
      "¨": 106,
      "©": 107,
      "ª": 108,
      "«": 109,
      "¬": 110,
      "®": 111,
      "¯": 112,
      "°": 113,
      "±": 114,
      "²": 115,
      "³": 116,
      "´": 117,
      "µ": 118,
      "¶": 119,
      "·": 120,
      "¸": 121,
      "¹": 122,
      "º": 123,
      "»": 124,
      "¼": 125,
      "½": 126,
      "¾": 127,
      "¿": 128,
      "À": 129,
      "Á": 130,
      "Â": 131,
      "Ã": 132,
      "Ä": 133,
      "Å": 134,
      "Æ": 135,
      "Ç": 136,
      "È": 137,
      "É": 138,
      "Ê": 139,
      "Ë": 140,
      "Ì": 141,
      "Í": 142,
      "Î": 143,
      "Ï": 144,
      "Ð": 145,
      "Ñ": 146,
      "Ò": 147,
      "Ó": 148,
      "Ô": 149,
      "Õ": 150,
      "Ö": 151,
      "×": 152,
      "Ø": 153,
      "Ù": 154,
      "Ú": 155,
      "Û": 156,
      "Ü": 157,
      "Ý": 158,
      "Þ": 159,
      "ß": 160,
      "à": 161,
      "á": 162,
      "â": 163,
      "ã": 164,
      "ä": 165,
      "å": 166,
      "æ": 167,
      "ç": 168,
      "è": 169,
      "é": 170,
      "ê": 171,
      "ë": 172,
      "ì": 173,
      "í": 174,
      "î": 175,
      "ï": 176,
      "ð": 177,
      "ñ": 178,
      "ò": 179,
      "ó": 180,
      "ô": 181,
      "õ": 182,
      "ö": 183,
      "÷": 184,
      "ø": 185,
      "ù": 186,
      "ú": 187,
      "û": 188,
      "ü": 189,
      "ý": 190,
      "þ": 191,
      "ÿ": 192,
      "Ā": 193,
      "ā": 194,
      "Ă": 195,
      "ă": 196,
      "Ą": 197,
      "ą": 198,
      "Ć": 199,
      "ć": 200,
      "Ĉ": 201,
      "ĉ": 202,
      "Ċ": 203,
      "ċ": 204,
      "Č": 205,
      "č": 206,
      "Ď": 207,
      "ď": 208,
      "Đ": 209,
      "đ": 210,
      "Ē": 211,
      "ē": 212,
      "Ĕ": 213,
      "ĕ": 214,
      "Ė": 215,
      "ė": 216,
      "Ę": 217,
      "ę": 218,
      "Ě": 219,
      "ě": 220,
      "Ĝ": 221,
      "ĝ": 222,
      "Ğ": 223,
      "ğ": 224,
      "Ġ": 225,
      "ġ": 226,
      "Ģ": 227,
      "ģ": 228,
      "Ĥ": 229,
      "ĥ": 230,
      "Ħ": 231,
      "ħ": 232,
      "Ĩ": 233,
      "ĩ": 234,
      "Ī": 235,
      "ī": 236,
      "Ĭ": 237,
      "ĭ": 238,
      "Į": 239,
      "į": 240,
      "İ": 241,
      "ı": 242,
      "Ĳ": 243,
      "ĳ": 244,
      "Ĵ": 245,
      "ĵ": 246,
      "Ķ": 247,
      "ķ": 248,
      "ĸ": 249,
      "Ĺ": 250,
      "ĺ": 251,
      "Ļ": 252,
      "ļ": 253,
      "Ľ": 254,
      "ľ": 255,
      "Ŀ": 256,
      "ŀ": 257,
      "Ł": 258,
      "ł": 259,
      "Ń": 260,
      "er": 261,
      "in": 262,
      "on": 263,
      "es": 264,
      "en": 265,
      "an": 266,
      "at": 267,
      "ed": 268,
      "al": 269,
      "ar": 270,
      "is": 271,
      "ic": 272,
      "or": 273,
      "ing": 274,
      "un": 275,
      "it": 276,
      "re": 277,
      "le": 278,
      "ro": 279,
      "el": 280,
      "st": 281,
      "ch": 282,
      "us": 283,
      "il": 284,
      "ra": 285,
      "ol": 286,
      "om": 287,
      "et": 288,
      "ion": 289,
      "ess": 290,
      "ly": 291,
      "id": 292,
      "ph": 293,
      "ul": 294,
      "ac": 295,
      "ent": 296,
      "ur": 297,
      "as": 298,
      "ab": 299,
      "th": 300,
      "em": 301,
      "am": 302,
      "os": 303,
      "ad": 304,
      "ot": 305,
      "ut": 306,
      "ous": 307,
      "ri": 308,
      "um": 309,
      "ist": 310,
      "og": 311,
      "ter": 312,
      "ec": 313,
      "im": 314,
      "ag": 315,
      "op": 316,
      "iv": 317,
      "ig": 318,
      "ation": 319,
      "oc": 320,
      "od": 321,
      "ers": 322,
      "iz": 323,
      "ap": 324,
      "qu": 325,
      "ant": 326,
      "ir": 327,
      "non": 328,
      "ia": 329,
      "ver": 330,
      "su": 331,
      "per": 332,
      "lo": 333,
      "con": 334,
      "est": 335,
      "sh": 336,
      "ness": 337,
      "ate": 338,
      "if": 339,
      "ip": 340,
      "ical": 341,
      "and": 342,
      "co": 343,
      "pro": 344,
      "de": 345,
      "la": 346,
      "ex": 347,
      "sp": 348,
      "'s": 349,
      "ell": 350,
      "ian": 351,
      "ce": 352,
      "se": 353,
      "ism": 354,
      "ine": 355,
      "und": 356,
      "ct": 357,
      "pre": 358,
      "able": 359,
      "ies": 360,
      "he": 361,
      "ish": 362,
      "ity": 363,
      "com": 364,
      "ib": 365,
      "ud": 366,
      "ill": 367,
      "ard": 368,
      "hy": 369,
      "ob": 370,
      "ast": 371,
      "ke": 372,
      "pl": 373,
      "ne": 374,
      "pr": 375,
      "ow": 376,
      "tr": 377,
      "ite": 378,
      "all": 379,
      "over": 380,
      "sc": 381,
      "end": 382,
      "ae": 383,
      "ial": 384,
      "te": 385,
      "ff": 386,
      "man": 387,
      "for": 388,
      "ie": 389,
      "ug": 390,
      "ment": 391,
      "ak": 392,
      "av": 393,
      "ive": 394,
      "dis": 395,
      "ang": 396,
      "pt": 397,
      "ated": 398,
      "ry": 399,
      "be": 400,
      "bl": 401,
      "uc": 402,
      "ind": 403,
      "par": 404,
      "ay": 405,
      "bo": 406,
      "ect": 407,
      "ost": 408,
      "oph": 409,
      "cl": 410,
      "yl": 411,
      "ht": 412,
      "int": 413,
      "ath": 414,
      "sub": 415,
      "olog": 416,
      "ass": 417,
      "eness": 418,
      "ub": 419,
      "ep": 420,
      "out": 421,
      "fl": 422,
      "ens": 423,
      "ort": 424,
      "ier": 425,
      "up": 426,
      "ick": 427,
      "ta": 428,
      "ically": 429,
      "ack": 430,
      "mon": 431,
      "ize": 432,
      "ful": 433,
      "tra": 434,
      "cy": 435,
      "ge": 436,
      "ator": 437,
      "inter": 438,
      "art": 439,
      "ely": 440,
      "li": 441,
      "ov": 442,
      "ust": 443,
      "ious": 444,
      "ach": 445,
      "mis": 446,
      "wor": 447,
      "res": 448,
      "sy": 449,
      "we": 450,
      "ide": 451,
      "ok": 452,
      "ary": 453,
      "ron": 454,
      "ating": 455,
      "ber": 456,
      "sel": 457,
      "ran": 458,
      "pe": 459,
      "ure": 460,
      "ric": 461,
      "raph": 462,
      "ins": 463,
      "ace": 464,
      "mo": 465,
      "low": 466,
      "ho": 467,
      "to": 468,
      "one": 469,
      "red": 470,
      "ha": 471,
      "act": 472,
      "let": 473,
      "cor": 474,
      "mat": 475,
      "ock": 476,
      "ys": 477,
      "gl": 478,
      "me": 479,
      "less": 480,
      "po": 481,
      "her": 482,
      "met": 483,
      "ru": 484,
      "ight": 485,
      "car": 486,
      "der": 487,
      "ma": 488,
      "sem": 489,
      "col": 490,
      "ans": 491,
      "ingly": 492,
      "di": 493,
      "so": 494,
      "aw": 495,
      "ise": 496,
      "self": 497,
      "ev": 498,
      "pol": 499,
      "ium": 500,
      "age": 501,
      "fo": 502,
      "ility": 503,
      "gra": 504,
      "min": 505,
      "wo": 506,
      "ith": 507,
      "ton": 508,
      "ille": 509,
      "under": 510,
      "row": 511,
      "ve": 512,
      "oid": 513,
      "rop": 514,
      "ult": 515,
      "well": 516,
      "super": 517,
      "ograph": 518,
      "wh": 519,
      "au": 520,
      "ally": 521,
      "ized": 522,
      "ence": 523,
      "mer": 524,
      "bar": 525,
      "ret": 526,
      "iness": 527,
      "rat": 528,
      "ular": 529,
      "ted": 530,
      "eter": 531,
      "oth": 532,
      "ah": 533,
      "ty": 534,
      "Ch": 535,
      "lect": 536,
      "ling": 537,
      "led": 538,
      "ung": 539,
      "ice": 540,
      "mar": 541,
      "idae": 542,
      "ich": 543,
      "ene": 544,
      "fer": 545,
      "ann": 546,
      "ros": 547,
      "bur": 548,
      "ire": 549,
      "Ã©": 550,
      "ied": 551,
      "fe": 552,
      "ger": 553,
      "br": 554,
      "ox": 555,
      "An": 556,
      "tri": 557,
      "gu": 558,
      "ped": 559,
      "00": 560,
      "bra": 561,
      "ose": 562,
      "yn": 563,
      "ser": 564,
      "ations": 565,
      "mic": 566,
      "sl": 567,
      "my": 568,
      "cer": 569,
      "ign": 570,
      "sk": 571,
      "orn": 572,
      "ile": 573,
      "ale": 574,
      "dec": 575,
      "men": 576,
      "arch": 577,
      "ative": 578,
      "of": 579,
      "med": 580,
      "unt": 581,
      "old": 582,
      "hal": 583,
      "gen": 584,
      "ore": 585,
      "ple": 586,
      "ash": 587,
      "cop": 588,
      "ville": 589,
      "pos": 590,
      "aut": 591,
      "inc": 592,
      "abl": 593,
      "our": 594,
      "ings": 595,
      "tw": 596,
      "head": 597,
      "like": 598,
      "ship": 599,
      "ik": 600,
      "ond": 601,
      "ily": 602,
      "unc": 603,
      "uns": 604,
      "ization": 605,
      "izing": 606,
      "az": 607,
      "orm": 608,
      "rit": 609,
      "che": 610,
      "asi": 611,
      "ree": 612,
      "ong": 613,
      "ates": 614,
      "ively": 615,
      "ions": 616,
      "ue": 617,
      "ink": 618,
      "own": 619,
      "anth": 620,
      "ck": 621,
      "ance": 622,
      "ater": 623,
      "inn": 624,
      "ane": 625,
      "ou": 626,
      "ont": 627,
      "cal": 628,
      "af": 629,
      "ors": 630,
      "ble": 631,
      "gr": 632,
      "des": 633,
      "pers": 634,
      "att": 635,
      "ey": 636,
      "rig": 637,
      "bro": 638,
      "iest": 639,
      "ably": 640,
      "ram": 641,
      "ogen": 642,
      "istic": 643,
      "edness": 644,
      "ability": 645,
      "anc": 646,
      "ement": 647,
      "sn": 648,
      "ther": 649,
      "post": 650,
      "ax": 651,
      "ster": 652,
      "omy": 653,
      "do": 654,
      "comment": 655,
      "cur": 656,
      "ons": 657,
      "uck": 658,
      "mal": 659,
      "bre": 660,
      "ren": 661,
      "ities": 662,
      "quasi": 663,
      "ting": 664,
      "ome": 665,
      "Al": 666,
      "leg": 667,
      "ler": 668,
      "sw": 669,
      "hyd": 670,
      "#!": 671,
      "cent": 672,
      "och": 673,
      "eth": 674,
      "py": 675,
      "ven": 676,
      "aff": 677,
      "bed": 678,
      "unter": 679,
      "go": 680,
      "Ġ-": 681,
      "enn": 682,
      "ific": 683,
      "ush": 684,
      "ain": 685,
      "iss": 686,
      "are": 687,
      "que": 688,
      "ym": 689,
      "tro": 690,
      "ugh": 691,
      "air": 692,
      "ord": 693,
      "du": 694,
      "last": 695,
      "ology": 696,
      "seud": 697,
      "rel": 698,
      "ank": 699,
      "io": 700,
      "ars": 701,
      "ix": 702,
      "enc": 703,
      "ered": 704,
      "etic": 705,
      "por": 706,
      "ised": 707,
      "land": 708,
      "ste": 709,
      "01": 710,
      "pal": 711,
      "sch": 712,
      "les": 713,
      "hem": 714,
      "pet": 715,
      "ableness": 716,
      "dem": 717,
      "ten": 718,
      "wood": 719,
      "back": 720,
      "tur": 721,
      "osis": 722,
      "aph": 723,
      "pat": 724,
      "ail": 725,
      "edly": 726,
      "the": 727,
      "cap": 728,
      "reg": 729,
      "ft": 730,
      "ient": 731,
      "ously": 732,
      "pres": 733,
      "ring": 734,
      "igh": 735,
      "ible": 736,
      "ged": 737,
      "sol": 738,
      "ition": 739,
      "ery": 740,
      "counter": 741,
      "eg": 742,
      "den": 743,
      "port": 744,
      "pseud": 745,
      "zo": 746,
      "phal": 747,
      "har": 748,
      "Ar": 749,
      "oss": 750,
      "ists": 751,
      "ict": 752,
      "rom": 753,
      "amb": 754,
      "work": 755,
      "lin": 756,
      "yt": 757,
      "hand": 758,
      "ina": 759,
      "ify": 760,
      "off": 761,
      "pan": 762,
      "pri": 763,
      "dra": 764,
      "cul": 765,
      "iform": 766,
      "als": 767,
      "ase": 768,
      "trans": 769,
      "rot": 770,
      "vol": 771,
      "rol": 772,
      "iveness": 773,
      "ward": 774,
      "ear": 775,
      "itis": 776,
      "ps": 777,
      "inf": 778,
      "ory": 779,
      "hyper": 780,
      "ics": 781,
      "orph": 782,
      "cont": 783,
      "ca": 784,
      "vent": 785,
      "eld": 786,
      "vers": 787,
      "press": 788,
      "atory": 789,
      "ari": 790,
      "oman": 791,
      "comm": 792,
      "omet": 793,
      "ull": 794,
      "ising": 795,
      "poly": 796,
      "kn": 797,
      "sm": 798,
      "eck": 799,
      "elect": 800,
      "fish": 801,
      "val": 802,
      "bor": 803,
      "Ã¤": 804,
      "erous": 805,
      "son": 806,
      "roph": 807,
      "bi": 808,
      "cat": 809,
      "lor": 810,
      "ual": 811,
      "rid": 812,
      "ze": 813,
      "ern": 814,
      "ines": 815,
      "arm": 816,
      "pra": 817,
      "rh": 818,
      "pur": 819,
      "by": 820,
      "oy": 821,
      "rum": 822,
      "form": 823,
      "ole": 824,
      "itt": 825,
      "vel": 826,
      "cra": 827,
      "ref": 828,
      "can": 829,
      "ett": 830,
      "but": 831,
      "uch": 832,
      "ner": 833,
      "ping": 834,
      "sal": 835,
      "ade": 836,
      "unf": 837,
      "vis": 838,
      "acc": 839,
      "vi": 840,
      "omat": 841,
      "gar": 842,
      "bal": 843,
      "rem": 844,
      "hum": 845,
      "aceae": 846,
      "ined": 847,
      "eli": 848,
      "pla": 849,
      "rec": 850,
      "sul": 851,
      "uff": 852,
      "ura": 853,
      "aceous": 854,
      "ley": 855,
      "ee": 856,
      "ias": 857,
      "rest": 858,
      "bel": 859,
      "ress": 860,
      "half": 861,
      "hom": 862,
      "rep": 863,
      "ott": 864,
      "dom": 865,
      "itic": 866,
      "way": 867,
      "uss": 868,
      "agn": 869,
      "syn": 870,
      "uth": 871,
      "ional": 872,
      "pred": 873,
      "stra": 874,
      "ere": 875,
      "ral": 876,
      "Mar": 877,
      "def": 878,
      "mes": 879,
      "squ": 880,
      "ousness": 881,
      "sur": 882,
      "unn": 883,
      "iff": 884,
      "add": 885,
      "iously": 886,
      "pen": 887,
      "char": 888,
      "pa": 889,
      "St": 890,
      "pi": 891,
      "mel": 892,
      "phot": 893,
      "del": 894,
      "ational": 895,
      "cri": 896,
      "hip": 897,
      "ird": 898,
      "bon": 899,
      "alk": 900,
      "hol": 901,
      "cle": 902,
      "ham": 903,
      "uro": 904,
      "itch": 905,
      "pot": 906,
      "org": 907,
      "anti": 908,
      "cons": 909,
      "aur": 910,
      "mak": 911,
      "ency": 912,
      "mult": 913,
      "hous": 914,
      "tim": 915,
      "micro": 916,
      "gy": 917,
      "ek": 918,
      "ele": 919,
      "war": 920,
      "ught": 921,
      "foot": 922,
      "ert": 923,
      "ild": 924,
      "heart": 925,
      "gre": 926,
      "yll": 927,
      "part": 928,
      "bit": 929,
      "hor": 930,
      "gal": 931,
      "cir": 932,
      "dy": 933,
      "equ": 934,
      "lar": 935,
      "onic": 936,
      "proof": 937,
      "bes": 938,
      "ets": 939,
      "amp": 940,
      "ological": 941,
      "gro": 942,
      "ging": 943,
      "ction": 944,
      "comp": 945,
      "Pro": 946,
      "arian": 947,
      "ored": 948,
      "conf": 949,
      "In": 950,
      "inal": 951,
      "uk": 952,
      "icul": 953,
      "eb": 954,
      "fac": 955,
      "sil": 956,
      "unk": 957,
      "ross": 958,
      "clo": 959,
      "dist": 960,
      "ering": 961,
      "read": 962,
      "iousness": 963,
      "na": 964,
      "top": 965,
      "atur": 966,
      "ew": 967,
      "ject": 968,
      "flu": 969,
      "oll": 970,
      "emb": 971,
      "cept": 972,
      "twice": 973,
      "ently": 974,
      "ana": 975,
      "els": 976,
      "atic": 977,
      "cre": 978,
      "ris": 979,
      "ters": 980,
      "ait": 981,
      "esis": 982,
      "ss": 983,
      "eless": 984,
      "ili": 985,
      "cum": 986,
      "orth": 987,
      "str": 988,
      "ext": 989,
      "ben": 990,
      "chi": 991,
      "ometer": 992,
      "lim": 993,
      "rag": 994,
      "overs": 995,
      "rin": 996,
      "rist": 997,
      "eral": 998,
      "ote": 999,
      "oscop": 1000,
      "ks": 1001,
      "cut": 1002,
      "ather": 1003,
      "rog": 1004,
      "Sh": 1005,
      "ette": 1006,
      "hyp": 1007,
      "ld": 1008,
      "ially": 1009,
      "imm": 1010,
      "burg": 1011,
      "no": 1012,
      "rown": 1013,
      "iph": 1014,
      "right": 1015,
      "ified": 1016,
      "inst": 1017,
      "div": 1018,
      "lav": 1019,
      "jo": 1020,
      "cher": 1021,
      "oma": 1022,
      "prec": 1023,
      "iferous": 1024,
      "yg": 1025,
      "aster": 1026,
      "lat": 1027,
      "pul": 1028,
      "fully": 1029,
      "wise": 1030,
      "umb": 1031,
      "vit": 1032,
      "bu": 1033,
      "ker": 1034,
      "Le": 1035,
      "she": 1036,
      "plic": 1037,
      "pin": 1038,
      "ologist": 1039,
      "ts": 1040,
      "mus": 1041,
      "tran": 1042,
      "ĠĠ": 1043,
      "ites": 1044,
      "tail": 1045,
      "hydro": 1046,
      "cin": 1047,
      "ield": 1048,
      "ule": 1049,
      "Car": 1050,
      "spir": 1051,
      "sych": 1052,
      "ved": 1053,
      "da": 1054,
      "len": 1055,
      "ame": 1056,
      "flow": 1057,
      "sec": 1058,
      "weed": 1059,
      "hood": 1060,
      "aer": 1061,
      "thy": 1062,
      "tet": 1063,
      "ying": 1064,
      "ries": 1065,
      "urn": 1066,
      "izes": 1067,
      "wind": 1068,
      "ides": 1069,
      "long": 1070,
      "lit": 1071,
      "pic": 1072,
      "zz": 1073,
      "water": 1074,
      "unch": 1075,
      "use": 1076,
      "exp": 1077,
      "eff": 1078,
      "antic": 1079,
      "mod": 1080,
      "ves": 1081,
      "Th": 1082,
      "ants": 1083,
      "mor": 1084,
      "mac": 1085,
      "otic": 1086,
      "prot": 1087,
      "amin": 1088,
      "ened": 1089,
      "ute": 1090,
      "ification": 1091,
      "ark": 1092,
      "ages": 1093,
      "nesses": 1094,
      "ography": 1095,
      "ira": 1096,
      "scri": 1097,
      "light": 1098,
      "oh": 1099,
      "pass": 1100,
      "occ": 1101,
      "world": 1102,
      "pit": 1103,
      "ving": 1104,
      "gon": 1105,
      "tem": 1106,
      "mid": 1107,
      "miss": 1108,
      "mit": 1109,
      "phil": 1110,
      "bas": 1111,
      "bol": 1112,
      "vo": 1113,
      "fore": 1114,
      "ited": 1115,
      "down": 1116,
      "enter": 1117,
      "osph": 1118,
      "oper": 1119,
      "aped": 1120,
      "exc": 1121,
      "El": 1122,
      "Ph": 1123,
      "sup": 1124,
      "rect": 1125,
      "ER": 1126,
      "log": 1127,
      "sa": 1128,
      "ius": 1129,
      "ocy": 1130,
      "tre": 1131,
      "ident": 1132,
      "cour": 1133,
      "wing": 1134,
      "oe": 1135,
      "ats": 1136,
      "unre": 1137,
      "hard": 1138,
      "not": 1139,
      "ony": 1140,
      "blo": 1141,
      "rous": 1142,
      "ament": 1143,
      "ata": 1144,
      "ider": 1145,
      "sym": 1146,
      "band": 1147,
      "cr": 1148,
      "ka": 1149,
      "mind": 1150,
      "fil": 1151,
      "eng": 1152,
      "ured": 1153,
      "arn": 1154,
      "other": 1155,
      "tor": 1156,
      "ogn": 1157,
      "iment": 1158,
      "dev": 1159,
      "kin": 1160,
      "ched": 1161,
      "bul": 1162,
      "ux": 1163,
      "omorph": 1164,
      "mot": 1165,
      "pend": 1166,
      "tal": 1167,
      "uncon": 1168,
      "elle": 1169,
      "stone": 1170,
      "cross": 1171,
      "dri": 1172,
      "far": 1173,
      "ural": 1174,
      "pap": 1175,
      "illa": 1176,
      "cry": 1177,
      "ded": 1178,
      "ately": 1179,
      "iac": 1180,
      "erg": 1181,
      "ments": 1182,
      "sim": 1183,
      "ians": 1184,
      "fur": 1185,
      "Sch": 1186,
      "phen": 1187,
      "izer": 1188,
      "ked": 1189,
      "sing": 1190,
      "asc": 1191,
      "king": 1192,
      "oty": 1193,
      "fra": 1194,
      "ibility": 1195,
      "ball": 1196,
      "ti": 1197,
      "ula": 1198,
      "board": 1199,
      "line": 1200,
      "bat": 1201,
      "cos": 1202,
      "ester": 1203,
      "ella": 1204,
      "radi": 1205,
      "its": 1206,
      "rif": 1207,
      "house": 1208,
      "bet": 1209,
      "bird": 1210,
      "ga": 1211,
      "pent": 1212,
      "lex": 1213,
      "uses": 1214,
      "mill": 1215,
      "put": 1216,
      "aring": 1217,
      "odont": 1218,
      "ese": 1219,
      "rew": 1220,
      "ops": 1221,
      "headed": 1222,
      "las": 1223,
      "mil": 1224,
      "sor": 1225,
      "ude": 1226,
      "ruct": 1227,
      "ba": 1228,
      "gent": 1229,
      "antly": 1230,
      "isms": 1231,
      "tar": 1232,
      "iate": 1233,
      "amph": 1234,
      "bow": 1235,
      "dog": 1236,
      "tain": 1237,
      "AR": 1238,
      "heter": 1239,
      "quin": 1240,
      "aden": 1241,
      "fulness": 1242,
      "En": 1243,
      "cro": 1244,
      "gri": 1245,
      "yr": 1246,
      "arth": 1247,
      "phon": 1248,
      "psych": 1249,
      "anal": 1250,
      "rad": 1251,
      "ulate": 1252,
      "extra": 1253,
      "Ne": 1254,
      "wa": 1255,
      "ingness": 1256,
      "Con": 1257,
      "oz": 1258,
      "van": 1259,
      "thal": 1260,
      "vert": 1261,
      "fa": 1262,
      "swe": 1263,
      "rap": 1264,
      "ister": 1265,
      "ishness": 1266,
      "ators": 1267,
      "bell": 1268,
      "itor": 1269,
      "resp": 1270,
      "lab": 1271,
      "atively": 1272,
      "arp": 1273,
      "black": 1274,
      "rub": 1275,
      "atch": 1276,
      "ellow": 1277,
      "rac": 1278,
      "emat": 1279,
      "lac": 1280,
      "wit": 1281,
      "ave": 1282,
      "pu": 1283,
      "book": 1284,
      "semi": 1285,
      "loc": 1286,
      "sac": 1287,
      "organ": 1288,
      "cock": 1289,
      "gn": 1290,
      "hab": 1291,
      "high": 1292,
      "iet": 1293,
      "key": 1294,
      "ges": 1295,
      "thor": 1296,
      "Re": 1297,
      "ality": 1298,
      "conc": 1299,
      "law": 1300,
      "cu": 1301,
      "hel": 1302,
      "va": 1303,
      "ison": 1304,
      "inv": 1305,
      "ras": 1306,
      "ution": 1307,
      "shaped": 1308,
      "Am": 1309,
      "lan": 1310,
      "unct": 1311,
      "Un": 1312,
      "bin": 1313,
      "mut": 1314,
      "fact": 1315,
      "aries": 1316,
      "ode": 1317,
      "apt": 1318,
      "lam": 1319,
      "unst": 1320,
      "isation": 1321,
      "chy": 1322,
      "lay": 1323,
      "ban": 1324,
      "card": 1325,
      "iser": 1326,
      "glo": 1327,
      "jud": 1328,
      "opt": 1329,
      "det": 1330,
      "sin": 1331,
      "dip": 1332,
      "get": 1333,
      "lip": 1334,
      "ara": 1335,
      "ean": 1336,
      "ike": 1337,
      "ool": 1338,
      "rate": 1339,
      "rod": 1340,
      "obia": 1341,
      "AN": 1342,
      "fol": 1343,
      "ios": 1344,
      "ms": 1345,
      "pop": 1346,
      "ender": 1347,
      "serv": 1348,
      "fin": 1349,
      "aking": 1350,
      "ening": 1351,
      "aria": 1352,
      "prov": 1353,
      "point": 1354,
      "ital": 1355,
      "umin": 1356,
      "Be": 1357,
      "cot": 1358,
      "une": 1359,
      "phy": 1360,
      "hed": 1361,
      "wort": 1362,
      "ids": 1363,
      "Or": 1364,
      "fire": 1365,
      "quad": 1366,
      "aker": 1367,
      "liv": 1368,
      "rust": 1369,
      "omer": 1370,
      "ico": 1371,
      "chlor": 1372,
      "aud": 1373,
      "pel": 1374,
      "iter": 1375,
      "ired": 1376,
      "Qu": 1377,
      "ises": 1378,
      "doub": 1379,
      "vir": 1380,
      "prof": 1381,
      "plan": 1382,
      "ancy": 1383,
      "bing": 1384,
      "dam": 1385,
      "whe": 1386,
      "ena": 1387,
      "white": 1388,
      "ifying": 1389,
      "gam": 1390,
      "atter": 1391,
      "acet": 1392,
      "ots": 1393,
      "ures": 1394,
      "elling": 1395,
      "bod": 1396,
      "nar": 1397,
      "IN": 1398,
      "ches": 1399,
      "idd": 1400,
      "ishly": 1401,
      "aps": 1402,
      "full": 1403,
      "electro": 1404,
      "Mc": 1405,
      "cam": 1406,
      "path": 1407,
      "orous": 1408,
      "ante": 1409,
      "ander": 1410,
      "ora": 1411,
      "rock": 1412,
      "don": 1413,
      "dig": 1414,
      "lic": 1415,
      "lib": 1416,
      "sat": 1417,
      "iner": 1418,
      "elled": 1419,
      "circum": 1420,
      "ced": 1421,
      "day": 1422,
      "gle": 1423,
      "aved": 1424,
      "bill": 1425,
      "pil": 1426,
      "rev": 1427,
      "ump": 1428,
      "contra": 1429,
      "ished": 1430,
      "ophil": 1431,
      "ON": 1432,
      "chem": 1433,
      "ola": 1434,
      "cast": 1435,
      "ior": 1436,
      "omb": 1437,
      "ney": 1438,
      "field": 1439,
      "ope": 1440,
      "oon": 1441,
      "isc": 1442,
      "cho": 1443,
      "rab": 1444,
      "urs": 1445,
      "spect": 1446,
      "imp": 1447,
      "bri": 1448,
      "esth": 1449,
      "const": 1450,
      "ien": 1451,
      "chn": 1452,
      "phys": 1453,
      "ranch": 1454,
      "tern": 1455,
      "udd": 1456,
      "ange": 1457,
      "sulph": 1458,
      "ake": 1459,
      "ky": 1460,
      "emon": 1461,
      "unw": 1462,
      "lad": 1463,
      "icular": 1464,
      "idi": 1465,
      "emp": 1466,
      "ece": 1467,
      "ives": 1468,
      "fre": 1469,
      "stand": 1470,
      "emia": 1471,
      "dr": 1472,
      "ete": 1473,
      "three": 1474,
      "istically": 1475,
      "hen": 1476,
      "hex": 1477,
      "iod": 1478,
      "acter": 1479,
      "mas": 1480,
      "ald": 1481,
      "matic": 1482,
      "lock": 1483,
      "tub": 1484,
      "ino": 1485,
      "eman": 1486,
      "word": 1487,
      "berry": 1488,
      "mist": 1489,
      "sle": 1490,
      "ilt": 1491,
      "box": 1492,
      "oxy": 1493,
      "ai": 1494,
      "ils": 1495,
      "oly": 1496,
      "ents": 1497,
      "ibly": 1498,
      "ologic": 1499,
      "faced": 1500,
      "aged": 1501,
      "Bar": 1502,
      "hist": 1503,
      "rough": 1504,
      "cha": 1505,
      "opod": 1506,
      "ford": 1507,
      "sen": 1508,
      "lem": 1509,
      "ibl": 1510,
      "He": 1511,
      "gast": 1512,
      "ream": 1513,
      "omn": 1514,
      "oct": 1515,
      "spec": 1516,
      "ences": 1517,
      "ST": 1518,
      "uv": 1519,
      "ray": 1520,
      "opter": 1521,
      "neum": 1522,
      "flo": 1523,
      "sum": 1524,
      "anim": 1525,
      "agg": 1526,
      "mouth": 1527,
      "agon": 1528,
      "aryn": 1529,
      "rical": 1530,
      "set": 1531,
      "Se": 1532,
      "lif": 1533,
      "ration": 1534,
      "esc": 1535,
      "look": 1536,
      "sho": 1537,
      "De": 1538,
      "mast": 1539,
      "empt": 1540,
      "ape": 1541,
      "beg": 1542,
      "ographic": 1543,
      "cas": 1544,
      "woman": 1545,
      "rost": 1546,
      "blood": 1547,
      "Per": 1548,
      "bil": 1549,
      "eled": 1550,
      "cord": 1551,
      "eyed": 1552,
      "Her": 1553,
      "ken": 1554,
      "two": 1555,
      "arter": 1556,
      "ioned": 1557,
      "lessness": 1558,
      "rant": 1559,
      "alt": 1560,
      "omin": 1561,
      "omen": 1562,
      "idal": 1563,
      "ophag": 1564,
      "pod": 1565,
      "ulation": 1566,
      "Col": 1567,
      "Gu": 1568,
      "oric": 1569,
      "ums": 1570,
      "gel": 1571,
      "je": 1572,
      "nut": 1573,
      "soc": 1574,
      "vic": 1575,
      "oral": 1576,
      "oder": 1577,
      "ned": 1578,
      "ood": 1579,
      "suc": 1580,
      "plac": 1581,
      "ysis": 1582,
      "jack": 1583,
      "ming": 1584,
      "orr": 1585,
      "ita": 1586,
      "otomy": 1587,
      "maker": 1588,
      "magn": 1589,
      "sar": 1590,
      "unic": 1591,
      "urg": 1592,
      "dim": 1593,
      "fir": 1594,
      "stri": 1595,
      "iled": 1596,
      "ards": 1597,
      "new": 1598,
      "oste": 1599,
      "anthrop": 1600,
      "Mon": 1601,
      "best": 1602,
      "free": 1603,
      "otrop": 1604,
      "oplast": 1605,
      "supers": 1606,
      "rich": 1607,
      "ining": 1608,
      "ances": 1609,
      "bush": 1610,
      "cess": 1611,
      "tu": 1612,
      "cover": 1613,
      "ones": 1614,
      "ads": 1615,
      "imper": 1616,
      "tele": 1617,
      "ophy": 1618,
      "unp": 1619,
      "oce": 1620,
      "after": 1621,
      "duct": 1622,
      "ano": 1623,
      "plat": 1624,
      "nos": 1625,
      "ogram": 1626,
      ".'": 1627,
      "ado": 1628,
      "iat": 1629,
      "night": 1630,
      "pig": 1631,
      "sun": 1632,
      "ench": 1633,
      "elic": 1634,
      "iron": 1635,
      "suff": 1636,
      "icalness": 1637,
      "Hy": 1638,
      "uct": 1639,
      "star": 1640,
      "enth": 1641,
      "ential": 1642,
      "cit": 1643,
      "fib": 1644,
      "horn": 1645,
      "just": 1646,
      "sign": 1647,
      "Cal": 1648,
      "RE": 1649,
      "bec": 1650,
      "pale": 1651,
      "smo": 1652,
      "orial": 1653,
      "ower": 1654,
      "bound": 1655,
      "making": 1656,
      "Har": 1657,
      "lig": 1658,
      "mag": 1659,
      "nit": 1660,
      "ero": 1661,
      "eric": 1662,
      "ection": 1663,
      "ces": 1664,
      "ye": 1665,
      "root": 1666,
      "olic": 1667,
      "cond": 1668,
      "colored": 1669,
      "pon": 1670,
      "sed": 1671,
      "spe": 1672,
      "pret": 1673,
      "flower": 1674,
      "fly": 1675,
      "iable": 1676,
      "short": 1677,
      "pseudo": 1678,
      "Cor": 1679,
      "cel": 1680,
      "ever": 1681,
      "fri": 1682,
      "gold": 1683,
      "past": 1684,
      "four": 1685,
      "green": 1686,
      "gest": 1687,
      "jur": 1688,
      "ket": 1689,
      "yellow": 1690,
      "inae": 1691,
      "preh": 1692,
      "gly": 1693,
      "hu": 1694,
      "rent": 1695,
      "rang": 1696,
      "round": 1697,
      "ultra": 1698,
      "ason": 1699,
      "fort": 1700,
      "rupt": 1701,
      "aver": 1702,
      "cab": 1703,
      "fast": 1704,
      "net": 1705,
      "sid": 1706,
      "init": 1707,
      "esh": 1708,
      "aded": 1709,
      "ival": 1710,
      "angu": 1711,
      "san": 1712,
      "sent": 1713,
      "enic": 1714,
      "iol": 1715,
      "pens": 1716,
      "aux": 1717,
      "ls": 1718,
      "Ġ2": 1719,
      "ini": 1720,
      "ime": 1721,
      "sper": 1722,
      "tap": 1723,
      "ianism": 1724,
      "ni": 1725,
      "oo": 1726,
      "Ġ3": 1727,
      "inous": 1728,
      "inate": 1729,
      "omic": 1730,
      "ocrat": 1731,
      "burn": 1732,
      "ĠĠĠĠ": 1733,
      "Ġ5": 1734,
      "Ġ6": 1735,
      "Ġ7": 1736,
      "Ġ8": 1737,
      "Ġ9": 1738,
      "unders": 1739,
      "draw": 1740,
      "vag": 1741,
      "Ġ4": 1742,
      "ales": 1743,
      "omed": 1744,
      "double": 1745,
      "fle": 1746,
      "acqu": 1747,
      "bled": 1748,
      "IS": 1749,
      "alism": 1750,
      "unex": 1751,
      "ulated": 1752,
      "oses": 1753,
      "appro": 1754,
      "disc": 1755,
      "ove": 1756,
      "gress": 1757,
      "AT": 1758,
      "mur": 1759,
      "test": 1760,
      "alle": 1761,
      "rob": 1762,
      "gram": 1763,
      "here": 1764,
      "fron": 1765,
      "gall": 1766,
      "hon": 1767,
      "Ã¨": 1768,
      "ership": 1769,
      "ophobia": 1770,
      "ynam": 1771,
      "mad": 1772,
      "ination": 1773,
      "acy": 1774,
      "iver": 1775,
      "Mal": 1776,
      "app": 1777,
      "corn": 1778,
      "ogenic": 1779,
      "vul": 1780,
      "wed": 1781,
      "spl": 1782,
      "berg": 1783,
      "oscope": 1784,
      "ibleness": 1785,
      "bag": 1786,
      "sph": 1787,
      "vet": 1788,
      "onia": 1789,
      "ilities": 1790,
      "emic": 1791,
      "irt": 1792,
      "ended": 1793,
      "aqu": 1794,
      "inted": 1795,
      "elike": 1796,
      "EN": 1797,
      "fall": 1798,
      "sand": 1799,
      "sens": 1800,
      "blue": 1801,
      "play": 1802,
      "'d": 1803,
      "AC": 1804,
      "bab": 1805,
      "liness": 1806,
      "nal": 1807,
      "ener": 1808,
      "class": 1809,
      "grand": 1810,
      "ytic": 1811,
      "lers": 1812,
      "tit": 1813,
      "ida": 1814,
      "Co": 1815,
      "Mer": 1816,
      "coc": 1817,
      "cell": 1818,
      "dic": 1819,
      "dia": 1820,
      "mol": 1821,
      "six": 1822,
      "vin": 1823,
      "var": 1824,
      "Ġ1": 1825,
      "stock": 1826,
      "hyl": 1827,
      "encephal": 1828,
      "Ad": 1829,
      "Par": 1830,
      "iation": 1831,
      "chan": 1832,
      "chor": 1833,
      "tered": 1834,
      "prop": 1835,
      "boy": 1836,
      "OR": 1837,
      "lap": 1838,
      "inu": 1839,
      "esia": 1840,
      "iling": 1841,
      "AL": 1842,
      "aj": 1843,
      "cad": 1844,
      "cla": 1845,
      "eu": 1846,
      "hur": 1847,
      "scar": 1848,
      "aven": 1849,
      "rank": 1850,
      "lets": 1851,
      "tongu": 1852,
      "gener": 1853,
      "iers": 1854,
      "tin": 1855,
      "amm": 1856,
      "ivity": 1857,
      "cow": 1858,
      "sea": 1859,
      "ays": 1860,
      "Wh": 1861,
      "bus": 1862,
      "alg": 1863,
      "unsh": 1864,
      "usion": 1865,
      "uring": 1866,
      "buck": 1867,
      "ef": 1868,
      "lie": 1869,
      "ato": 1870,
      "arg": 1871,
      "itive": 1872,
      "ria": 1873,
      "tax": 1874,
      "person": 1875,
      "fishes": 1876,
      "Com": 1877,
      "pip": 1878,
      "tel": 1879,
      "room": 1880,
      "cephal": 1881,
      "illed": 1882,
      "ucle": 1883,
      "cyst": 1884,
      "tetra": 1885,
      "bull": 1886,
      "side": 1887,
      "worth": 1888,
      "Man": 1889,
      "aul": 1890,
      "blow": 1891,
      "ocephal": 1892,
      "Bo": 1893,
      "Ed": 1894,
      "born": 1895,
      "mand": 1896,
      "era": 1897,
      "icon": 1898,
      "stick": 1899,
      "ching": 1900,
      "illing": 1901,
      "ES": 1902,
      "cular": 1903,
      "lu": 1904,
      "elt": 1905,
      "mann": 1906,
      "rong": 1907,
      "hole": 1908,
      "ometry": 1909,
      "bos": 1910,
      "cod": 1911,
      "cand": 1912,
      "dro": 1913,
      "hold": 1914,
      "ny": 1915,
      "pant": 1916,
      "ela": 1917,
      "uter": 1918,
      "rian": 1919,
      "antip": 1920,
      "conn": 1921,
      "town": 1922,
      "amine": 1923,
      "agu": 1924,
      "turn": 1925,
      "AS": 1926,
      "Br": 1927,
      "fed": 1928,
      "hib": 1929,
      "voc": 1930,
      "alist": 1931,
      "stat": 1932,
      "chron": 1933,
      "ilo": 1934,
      "ety": 1935,
      "tho": 1936,
      "open": 1937,
      "oblast": 1938,
      "Ste": 1939,
      "ding": 1940,
      "dol": 1941,
      "unm": 1942,
      "iting": 1943,
      "subst": 1944,
      "poss": 1945,
      "snow": 1946,
      "Ger": 1947,
      "oil": 1948,
      "alize": 1949,
      "chro": 1950,
      "deep": 1951,
      "plum": 1952,
      "ror": 1953,
      "any": 1954,
      "izz": 1955,
      "haw": 1956,
      "sky": 1957,
      "present": 1958,
      "fat": 1959,
      "jug": 1960,
      "inic": 1961,
      "athy": 1962,
      "ract": 1963,
      "rix": 1964,
      "ivers": 1965,
      "ending": 1966,
      "flag": 1967,
      "worm": 1968,
      "horse": 1969,
      "Bra": 1970,
      "tab": 1971,
      "ature": 1972,
      "unh": 1973,
      "leaved": 1974,
      "quer": 1975,
      "Ver": 1976,
      "ech": 1977,
      "try": 1978,
      "hearted": 1979,
      "minded": 1980,
      "IC": 1981,
      "Sal": 1982,
      "big": 1983,
      "fal": 1984,
      "lith": 1985,
      "sav": 1986,
      "wash": 1987,
      "eling": 1988,
      "stall": 1989,
      "osp": 1990,
      "antim": 1991,
      "nonre": 1992,
      "Ge": 1993,
      "bib": 1994,
      "dest": 1995,
      "hot": 1996,
      "til": 1997,
      "win": 1998,
      "itation": 1999,
      "leaf": 2000,
      "loy": 2001,
      "boat": 2002,
      "ologically": 2003,
      "time": 2004,
      "Mor": 2005,
      "master": 2006,
      "nor": 2007,
      "vest": 2008,
      "sequ": 2009,
      "ption": 2010,
      "Ber": 2011,
      "mos": 2012,
      "viv": 2013,
      "onian": 2014,
      "aled": 2015,
      "ager": 2016,
      "tract": 2017,
      "brid": 2018,
      "cloth": 2019,
      "ko": 2020,
      "sap": 2021,
      "iced": 2022,
      "omies": 2023,
      "cycl": 2024,
      "ada": 2025,
      "umber": 2026,
      "bear": 2027,
      "rolog": 2028,
      "fig": 2029,
      "gas": 2030,
      "etically": 2031,
      "ading": 2032,
      "opol": 2033,
      "sept": 2034,
      "ishing": 2035,
      "hypo": 2036,
      "sweet": 2037,
      "AM": 2038,
      "bot": 2039,
      "gem": 2040,
      "mous": 2041,
      "reen": 2042,
      "ades": 2043,
      "ectomy": 2044,
      "'t": 2045,
      "ea": 2046,
      "pir": 2047,
      "pick": 2048,
      "sman": 2049,
      "wall": 2050,
      "reat": 2051,
      "roy": 2052,
      "rain": 2053,
      "cost": 2054,
      "hair": 2055,
      "actyl": 2056,
      "lessly": 2057,
      "bic": 2058,
      "bank": 2059,
      "ij": 2060,
      "vie": 2061,
      "ores": 2062,
      "Pal": 2063,
      "duc": 2064,
      "pect": 2065,
      "tol": 2066,
      "zen": 2067,
      "ared": 2068,
      "chol": 2069,
      "igen": 2070,
      "bling": 2071,
      "clim": 2072,
      "mont": 2073,
      "iums": 2074,
      "pleas": 2075,
      "ometric": 2076,
      "Bl": 2077,
      "dry": 2078,
      "mir": 2079,
      "pneum": 2080,
      "ses": 2081,
      "saw": 2082,
      "tip": 2083,
      "za": 2084,
      "stre": 2085,
      "stem": 2086,
      "utter": 2087,
      "pled": 2088,
      "000": 2089,
      "ways": 2090,
      "Mel": 2091,
      "god": 2092,
      "iel": 2093,
      "nic": 2094,
      "penn": 2095,
      "unin": 2096,
      "rim": 2097,
      "ogam": 2098,
      "imet": 2099,
      "quis": 2100,
      "perf": 2101,
      "tric": 2102,
      "idea": 2103,
      "Mo": 2104,
      "bron": 2105,
      "fing": 2106,
      "sick": 2107,
      "noncon": 2108,
      "aked": 2109,
      "spirit": 2110,
      "aus": 2111,
      "bott": 2112,
      "sus": 2113,
      "erv": 2114,
      "allow": 2115,
      "unpro": 2116,
      "rose": 2117,
      "appe": 2118,
      "obi": 2119,
      "intra": 2120,
      "thick": 2121,
      "soft": 2122,
      "wards": 2123,
      "human": 2124,
      "Er": 2125,
      "dish": 2126,
      "fold": 2127,
      "ience": 2128,
      "pter": 2129,
      "zed": 2130,
      "ona": 2131,
      "phosph": 2132,
      "ental": 2133,
      "ama": 2134,
      "ift": 2135,
      "boro": 2136,
      "We": 2137,
      "ioc": 2138,
      "neck": 2139,
      "aly": 2140,
      "step": 2141,
      "uria": 2142,
      "astic": 2143,
      "neg": 2144,
      "neph": 2145,
      "lich": 2146,
      "vas": 2147,
      "allo": 2148,
      "umer": 2149,
      "eller": 2150,
      "iber": 2151,
      "cler": 2152,
      "tox": 2153,
      "tooth": 2154,
      "Christ": 2155,
      "looking": 2156,
      "fam": 2157,
      "gh": 2158,
      "pid": 2159,
      "rer": 2160,
      "rated": 2161,
      "ubl": 2162,
      "zer": 2163,
      "illy": 2164,
      "undis": 2165,
      "coll": 2166,
      "nec": 2167,
      "unde": 2168,
      "osity": 2169,
      "rib": 2170,
      "istical": 2171,
      "flat": 2172,
      "Ab": 2173,
      "EL": 2174,
      "iated": 2175,
      "tree": 2176,
      "writ": 2177,
      "ols": 2178,
      "lym": 2179,
      "abol": 2180,
      "thro": 2181,
      "oped": 2182,
      "opath": 2183,
      "inesses": 2184,
      "ements": 2185,
      "therm": 2186,
      "Tur": 2187,
      "gor": 2188,
      "loss": 2189,
      "zing": 2190,
      "ateness": 2191,
      "ala": 2192,
      "aling": 2193,
      "emin": 2194,
      "count": 2195,
      "palae": 2196,
      "Ros": 2197,
      "iro": 2198,
      "olith": 2199,
      "outs": 2200,
      "glut": 2201,
      "grass": 2202,
      "Mac": 2203,
      "bug": 2204,
      "iqu": 2205,
      "rug": 2206,
      "tic": 2207,
      "used": 2208,
      "kee": 2209,
      "soul": 2210,
      "mark": 2211,
      "slip": 2212,
      "stere": 2213,
      "tot": 2214,
      "zy": 2215,
      "uncom": 2216,
      "loid": 2217,
      "inder": 2218,
      "eye": 2219,
      "Ex": 2220,
      "Pan": 2221,
      "gan": 2222,
      "pec": 2223,
      "ices": 2224,
      "icate": 2225,
      "quest": 2226,
      "spin": 2227,
      "ends": 2228,
      "monger": 2229,
      "cav": 2230,
      "fav": 2231,
      "mort": 2232,
      "som": 2233,
      "ativeness": 2234,
      "repro": 2235,
      "plant": 2236,
      "ief": 2237,
      "ected": 2238,
      "resh": 2239,
      "moon": 2240,
      "semic": 2241,
      "good": 2242,
      "cult": 2243,
      "gran": 2244,
      "iaceae": 2245,
      "natur": 2246,
      "with": 2247,
      "walk": 2248,
      "itut": 2249,
      "aco": 2250,
      "Anti": 2251,
      "benz": 2252,
      "single": 2253,
      "cran": 2254,
      "drop": 2255,
      "ll": 2256,
      "wer": 2257,
      "ican": 2258,
      "ided": 2259,
      "ury": 2260,
      "ema": 2261,
      "eme": 2262,
      "trich": 2263,
      "clos": 2264,
      "Ma": 2265,
      "iant": 2266,
      "now": 2267,
      "itan": 2268,
      "itable": 2269,
      "rein": 2270,
      "ston": 2271,
      "chal": 2272,
      "check": 2273,
      "rack": 2274,
      "acid": 2275,
      "izable": 2276,
      "ups": 2277,
      "earth": 2278,
      "crypt": 2279,
      "gang": 2280,
      "ki": 2281,
      "oes": 2282,
      "run": 2283,
      "unb": 2284,
      "chrom": 2285,
      "iles": 2286,
      "ophthal": 2287,
      "ologies": 2288,
      "Cam": 2289,
      "Em": 2290,
      "tle": 2291,
      "uous": 2292,
      "orch": 2293,
      "chin": 2294,
      "adv": 2295,
      "neuro": 2296,
      "position": 2297,
      "dil": 2298,
      "mu": 2299,
      "rite": 2300,
      "otted": 2301,
      "oco": 2302,
      "spor": 2303,
      "blind": 2304,
      "awn": 2305,
      "posit": 2306,
      "viol": 2307,
      "silver": 2308,
      "CO": 2309,
      "cant": 2310,
      "iot": 2311,
      "jour": 2312,
      "asis": 2313,
      "retro": 2314,
      "plex": 2315,
      "Me": 2316,
      "ais": 2317,
      "call": 2318,
      "anis": 2319,
      "atin": 2320,
      "unim": 2321,
      "spar": 2322,
      "Non": 2323,
      "blast": 2324,
      "cath": 2325,
      "fru": 2326,
      "hod": 2327,
      "ju": 2328,
      "rically": 2329,
      "yo": 2330,
      "eding": 2331,
      "arist": 2332,
      "ionist": 2333,
      "uls": 2334,
      "agog": 2335,
      "color": 2336,
      "whip": 2337,
      "Te": 2338,
      "cate": 2339,
      "dent": 2340,
      "han": 2341,
      "ja": 2342,
      "mach": 2343,
      "tum": 2344,
      "wick": 2345,
      "Ã¶": 2346,
      "ication": 2347,
      "ulating": 2348,
      "oxid": 2349,
      "ogenesis": 2350,
      "school": 2351,
      "Bur": 2352,
      "grat": 2353,
      "rill": 2354,
      "some": 2355,
      "tom": 2356,
      "alized": 2357,
      "ionary": 2358,
      "phyt": 2359,
      "opy": 2360,
      "ifies": 2361,
      "ographical": 2362,
      "thought": 2363,
      "Cy": 2364,
      "dial": 2365,
      "oi": 2366,
      "ya": 2367,
      "osoph": 2368,
      "ophyll": 2369,
      "uber": 2370,
      "dict": 2371,
      "uld": 2372,
      "sport": 2373,
      "angle": 2374,
      "meter": 2375,
      "semip": 2376,
      "ographer": 2377,
      "outh": 2378,
      "prehens": 2379,
      "Hol": 2380,
      "IT": 2381,
      "Pol": 2382,
      "diff": 2383,
      "joy": 2384,
      "ues": 2385,
      "vac": 2386,
      "raw": 2387,
      "ask": 2388,
      "ocer": 2389,
      "lax": 2390,
      "comb": 2391,
      "ophor": 2392,
      "oidal": 2393,
      "ground": 2394,
      "rhy": 2395,
      "tam": 2396,
      "yer": 2397,
      "ani": 2398,
      "arl": 2399,
      "aro": 2400,
      "eler": 2401,
      "oms": 2402,
      "iding": 2403,
      "need": 2404,
      "US": 2405,
      "aint": 2406,
      "cus": 2407,
      "gyn": 2408,
      "onder": 2409,
      "educ": 2410,
      "alb": 2411,
      "ases": 2412,
      "apor": 2413,
      "prer": 2414,
      "oney": 2415,
      "break": 2416,
      "footed": 2417,
      "Del": 2418,
      "cup": 2419,
      "home": 2420,
      "pack": 2421,
      "wide": 2422,
      "ader": 2423,
      "ogon": 2424,
      "odon": 2425,
      "ritic": 2426,
      "dle": 2427,
      "doc": 2428,
      "grow": 2429,
      "rud": 2430,
      "sex": 2431,
      "anat": 2432,
      "cham": 2433,
      "chond": 2434,
      "acon": 2435,
      "osaur": 2436,
      "rie": 2437,
      "apy": 2438,
      "ife": 2439,
      "ifer": 2440,
      "angel": 2441,
      "lik": 2442,
      "fet": 2443,
      "rut": 2444,
      "ske": 2445,
      "vict": 2446,
      "ica": 2447,
      "unted": 2448,
      "esses": 2449,
      "ulous": 2450,
      "ocarp": 2451,
      "bert": 2452,
      "ogenous": 2453,
      "Bel": 2454,
      "Fran": 2455,
      "Hal": 2456,
      "Sc": 2457,
      "dys": 2458,
      "hog": 2459,
      "nov": 2460,
      "ozo": 2461,
      "pes": 2462,
      "ril": 2463,
      "yle": 2464,
      "itude": 2465,
      "real": 2466,
      "emer": 2467,
      "quick": 2468,
      "ipp": 2469,
      "dead": 2470,
      "pound": 2471,
      "rosis": 2472,
      "roll": 2473,
      "pract": 2474,
      "craft": 2475,
      "script": 2476,
      "aryng": 2477,
      "The": 2478,
      "face": 2479,
      "sla": 2480,
      "zon": 2481,
      "abb": 2482,
      "demon": 2483,
      "At": 2484,
      "Ser": 2485,
      "cet": 2486,
      "cart": 2487,
      "dale": 2488,
      "hes": 2489,
      "kind": 2490,
      "rick": 2491,
      "uper": 2492,
      "chap": 2493,
      "ulph": 2494,
      "amed": 2495,
      "ried": 2496,
      "qual": 2497,
      "deb": 2498,
      "clam": 2499,
      "found": 2500,
      "broad": 2501,
      "ET": 2502,
      "bid": 2503,
      "hop": 2504,
      "mul": 2505,
      "mam": 2506,
      "pay": 2507,
      "ua": 2508,
      "vice": 2509,
      "esp": 2510,
      "road": 2511,
      "chur": 2512,
      "antis": 2513,
      "scler": 2514,
      "ophys": 2515,
      "encies": 2516,
      "cac": 2517,
      "civ": 2518,
      "mud": 2519,
      "rus": 2520,
      "sville": 2521,
      "inct": 2522,
      "onom": 2523,
      "unl": 2524,
      "sten": 2525,
      "omal": 2526,
      "eta": 2527,
      "irl": 2528,
      "supra": 2529,
      "peri": 2530,
      "iffer": 2531,
      "seed": 2532,
      "clad": 2533,
      "ranchi": 2534,
      "wool": 2535,
      "posed": 2536,
      "fluor": 2537,
      "ih": 2538,
      "mart": 2539,
      "nom": 2540,
      "ois": 2541,
      "wig": 2542,
      "pros": 2543,
      "spring": 2544,
      "Ã¤n": 2545,
      "Phil": 2546,
      "AD": 2547,
      "As": 2548,
      "RO": 2549,
      "bone": 2550,
      "batt": 2551,
      "gla": 2552,
      "hang": 2553,
      "icity": 2554,
      "itter": 2555,
      "itate": 2556,
      "rach": 2557,
      "ospor": 2558,
      "irre": 2559,
      "bles": 2560,
      "liqu": 2561,
      "guard": 2562,
      "gun": 2563,
      "nas": 2564,
      "ires": 2565,
      "nonex": 2566,
      "ested": 2567,
      "tear": 2568,
      "atingly": 2569,
      "hemat": 2570,
      "multip": 2571,
      "Pet": 2572,
      "Wil": 2573,
      "bred": 2574,
      "lier": 2575,
      "rine": 2576,
      "uit": 2577,
      "uph": 2578,
      "ually": 2579,
      "incl": 2580,
      "itting": 2581,
      "recon": 2582,
      "roid": 2583,
      "etical": 2584,
      "ouse": 2585,
      "precon": 2586,
      "plate": 2587,
      "bearing": 2588,
      "rans": 2589,
      "collect": 2590,
      "evol": 2591,
      "yllab": 2592,
      "aug": 2593,
      "bs": 2594,
      "dar": 2595,
      "eph": 2596,
      "fus": 2597,
      "fair": 2598,
      "gum": 2599,
      "rÃ©": 2600,
      "oring": 2601,
      "lev": 2602,
      "stic": 2603,
      "stro": 2604,
      "asia": 2605,
      "ishes": 2606,
      "mental": 2607,
      "actin": 2608,
      "glass": 2609,
      "crimin": 2610,
      "brown": 2611,
      "cing": 2612,
      "fix": 2613,
      "ique": 2614,
      "pac": 2615,
      "rink": 2616,
      "inated": 2617,
      "isk": 2618,
      "ito": 2619,
      "olite": 2620,
      "amo": 2621,
      "rip": 2622,
      "iving": 2623,
      "shop": 2624,
      "dex": 2625,
      "asted": 2626,
      "akes": 2627,
      "sound": 2628,
      "publ": 2629,
      "MS": 2630,
      "nob": 2631,
      "sab": 2632,
      "upt": 2633,
      "yard": 2634,
      "eries": 2635,
      "intr": 2636,
      "asm": 2637,
      "rict": 2638,
      "dered": 2639,
      "inned": 2640,
      "stead": 2641,
      "BS": 2642,
      "Gra": 2643,
      "La": 2644,
      "mem": 2645,
      "pup": 2646,
      "tes": 2647,
      "escent": 2648,
      "arily": 2649,
      "styl": 2650,
      "chen": 2651,
      "ody": 2652,
      "cyan": 2653,
      "liest": 2654,
      "uster": 2655,
      "hook": 2656,
      "meas": 2657,
      "minist": 2658,
      "habit": 2659,
      "smooth": 2660,
      "deter": 2661,
      "gig": 2662,
      "mia": 2663,
      "pom": 2664,
      "icol": 2665,
      "itz": 2666,
      "uli": 2667,
      "ishment": 2668,
      "compl": 2669,
      "scal": 2670,
      "small": 2671,
      "tailed": 2672,
      "AP": 2673,
      "fu": 2674,
      "hap": 2675,
      "vari": 2676,
      "asse": 2677,
      "oge": 2678,
      "shot": 2679,
      "aves": 2680,
      "action": 2681,
      "lings": 2682,
      "myth": 2683,
      "ables": 2684,
      "straight": 2685,
      "Pl": 2686,
      "graph": 2687,
      "hier": 2688,
      "una": 2689,
      "stud": 2690,
      "strat": 2691,
      "illo": 2692,
      "etta": 2693,
      "hepat": 2694,
      "aste": 2695,
      "ector": 2696,
      "gloss": 2697,
      "oscopy": 2698,
      "Val": 2699,
      "bis": 2700,
      "dress": 2701,
      "kes": 2702,
      "ns": 2703,
      "oec": 2704,
      "rhe": 2705,
      "tick": 2706,
      "lement": 2707,
      "isted": 2708,
      "depend": 2709,
      "object": 2710,
      "neu": 2711,
      "scop": 2712,
      "achy": 2713,
      "pression": 2714,
      "IL": 2715,
      "cub": 2716,
      "ds": 2717,
      "rup": 2718,
      "sco": 2719,
      "incon": 2720,
      "itud": 2721,
      "olig": 2722,
      "thir": 2723,
      "iller": 2724,
      "many": 2725,
      "angi": 2726,
      "block": 2727,
      "carn": 2728,
      "colon": 2729,
      "ogenetic": 2730,
      "patri": 2731,
      "offic": 2732,
      "continu": 2733,
      "ED": 2734,
      "crown": 2735,
      "dism": 2736,
      "fic": 2737,
      "gin": 2738,
      "iam": 2739,
      "lon": 2740,
      "lion": 2741,
      "sam": 2742,
      "tow": 2743,
      "tight": 2744,
      "Ã¼": 2745,
      "inte": 2746,
      "ali": 2747,
      "reed": 2748,
      "elia": 2749,
      "olat": 2750,
      "ented": 2751,
      "asy": 2752,
      "ased": 2753,
      "oted": 2754,
      "ocar": 2755,
      "izations": 2756,
      "tribut": 2757,
      "macro": 2758,
      "judic": 2759,
      "gut": 2760,
      "hag": 2761,
      "most": 2762,
      "alous": 2763,
      "unco": 2764,
      "unsp": 2765,
      "unse": 2766,
      "bour": 2767,
      "clean": 2768,
      "lymph": 2769,
      "200": 2770,
      "Nor": 2771,
      "fum": 2772,
      "kins": 2773,
      "mix": 2774,
      "nes": 2775,
      "nav": 2776,
      "xy": 2777,
      "zes": 2778,
      "lee": 2779,
      "rail": 2780,
      "race": 2781,
      "idly": 2782,
      "phant": 2783,
      "amid": 2784,
      "ecut": 2785,
      "agger": 2786,
      "grav": 2787,
      "omata": 2788,
      "Ag": 2789,
      "Ap": 2790,
      "Cap": 2791,
      "Gal": 2792,
      "My": 2793,
      "Post": 2794,
      "hell": 2795,
      "how": 2796,
      "pier": 2797,
      "enz": 2798,
      "eder": 2799,
      "arc": 2800,
      "oria": 2801,
      "reck": 2802,
      "oles": 2803,
      "termin": 2804,
      "oplas": 2805,
      "lob": 2806,
      "ipar": 2807,
      "pron": 2808,
      "communic": 2809,
      "Mad": 2810,
      "Pe": 2811,
      "dÃ©": 2812,
      "hat": 2813,
      "ii": 2814,
      "luc": 2815,
      "pist": 2816,
      "sail": 2817,
      "infl": 2818,
      "stom": 2819,
      "ession": 2820,
      "ulus": 2821,
      "amer": 2822,
      "iger": 2823,
      "quar": 2824,
      "ills": 2825,
      "hyster": 2826,
      "overn": 2827,
      "techn": 2828,
      "anger": 2829,
      "bew": 2830,
      "close": 2831,
      "pyro": 2832,
      "omania": 2833,
      "Bal": 2834,
      "CH": 2835,
      "Ter": 2836,
      "aed": 2837,
      "bac": 2838,
      "bir": 2839,
      "hall": 2840,
      "jac": 2841,
      "rand": 2842,
      "eno": 2843,
      "unad": 2844,
      "racy": 2845,
      "thunder": 2846,
      "empor": 2847,
      "imon": 2848,
      "ocent": 2849,
      "irm": 2850,
      "nonpro": 2851,
      "paras": 2852,
      "meg": 2853,
      "author": 2854,
      "Char": 2855,
      "harmon": 2856,
      "..": 2857,
      "pun": 2858,
      "rene": 2859,
      "vig": 2860,
      "wan": 2861,
      "alness": 2862,
      "essed": 2863,
      "uran": 2864,
      "aken": 2865,
      "resol": 2866,
      "actic": 2867,
      "ochro": 2868,
      "solid": 2869,
      "know": 2870,
      "crack": 2871,
      "rograph": 2872,
      "wheel": 2873,
      "Hel": 2874,
      "Ke": 2875,
      "bad": 2876,
      "watch": 2877,
      "Ãĥ": 2878,
      "rope": 2879,
      "idium": 2880,
      "imer": 2881,
      "aging": 2882,
      "quarter": 2883,
      "irs": 2884,
      "subl": 2885,
      "uded": 2886,
      "print": 2887,
      "alled": 2888,
      "uge": 2889,
      "oster": 2890,
      "intro": 2891,
      "tram": 2892,
      "handed": 2893,
      "cript": 2894,
      "occup": 2895,
      "Ly": 2896,
      "hob": 2897,
      "kil": 2898,
      "morph": 2899,
      "ound": 2900,
      "table": 2901,
      "wel": 2902,
      "orship": 2903,
      "ingu": 2904,
      "ither": 2905,
      "usive": 2906,
      "agin": 2907,
      "ationist": 2908,
      "sharp": 2909,
      "obst": 2910,
      "formed": 2911,
      "berries": 2912,
      "direct": 2913,
      "gray": 2914,
      "vey": 2915,
      "merc": 2916,
      "omatic": 2917,
      "sulf": 2918,
      "consum": 2919,
      "winged": 2920,
      "Sy": 2921,
      "fro": 2922,
      "gate": 2923,
      "sight": 2924,
      "zyg": 2925,
      "itious": 2926,
      "stain": 2927,
      "rav": 2928,
      "uric": 2929,
      "amar": 2930,
      "rier": 2931,
      "ima": 2932,
      "odd": 2933,
      "iality": 2934,
      "eps": 2935,
      "oken": 2936,
      "care": 2937,
      "brush": 2938,
      "works": 2939,
      "built": 2940,
      "temper": 2941,
      "400": 2942,
      "Sar": 2943,
      "TH": 2944,
      "gard": 2945,
      "hus": 2946,
      "iaceous": 2947,
      "mass": 2948,
      "uf": 2949,
      "wire": 2950,
      "oned": 2951,
      "ories": 2952,
      "leuc": 2953,
      "chry": 2954,
      "using": 2955,
      "eted": 2956,
      "ths": 2957,
      "dew": 2958,
      "owed": 2959,
      "trust": 2960,
      "cyt": 2961,
      "oven": 2962,
      "oked": 2963,
      "auto": 2964,
      "breath": 2965,
      "ordin": 2966,
      "lined": 2967,
      "piece": 2968,
      "mouthed": 2969,
      "magnet": 2970,
      "300": 2971,
      "For": 2972,
      "LE": 2973,
      "Mont": 2974,
      "gers": 2975,
      "hi": 2976,
      "hr": 2977,
      "winter": 2978,
      "ether": 2979,
      "impro": 2980,
      "ocele": 2981,
      "nonf": 2982,
      "ptic": 2983,
      "sour": 2984,
      "myel": 2985,
      "commun": 2986,
      "valu": 2987,
      "ocyst": 2988,
      "ocyte": 2989,
      "gastro": 2990,
      "500": 2991,
      "600": 2992,
      "700": 2993,
      "800": 2994,
      "900": 2995,
      "Bro": 2996,
      "Can": 2997,
      "bem": 2998,
      "tend": 2999,
      "trop": 3000,
      "xanth": 3001,
      "onym": 3002,
      "athe": 3003,
      "lean": 3004,
      "ilic": 3005,
      "emen": 3006,
      "aman": 3007,
      "adi": 3008,
      "imeter": 3009,
      "apper": 3010,
      "nee": 3011,
      "avy": 3012,
      "maid": 3013,
      "fool": 3014,
      "bread": 3015,
      "salt": 3016,
      "life": 3017,
      "Cl": 3018,
      "Don": 3019,
      "Mus": 3020,
      "May": 3021,
      "dor": 3022,
      "pus": 3023,
      "west": 3024,
      "esque": 3025,
      "iscop": 3026,
      "unper": 3027,
      "child": 3028,
      "olar": 3029,
      "emph": 3030,
      "amy": 3031,
      "amic": 3032,
      "agen": 3033,
      "odes": 3034,
      "touch": 3035,
      "ornith": 3036,
      "bud": 3037,
      "brow": 3038,
      "bene": 3039,
      "crow": 3040,
      "did": 3041,
      "xyl": 3042,
      "anic": 3043,
      "rable": 3044,
      "idian": 3045,
      "emper": 3046,
      "riv": 3047,
      "consc": 3048,
      "coun": 3049,
      "princ": 3050,
      "inking": 3051,
      "prim": 3052,
      "mission": 3053,
      "Gar": 3054,
      "bacter": 3055,
      "case": 3056,
      "eur": 3057,
      "fun": 3058,
      "hos": 3059,
      "wart": 3060,
      "ware": 3061,
      "ilit": 3062,
      "oli": 3063,
      "idia": 3064,
      "idity": 3065,
      "ams": 3066,
      "igu": 3067,
      "ocyt": 3068,
      "coal": 3069,
      "beat": 3070,
      "weight": 3071,
      "ocks": 3072,
      "general": 3073,
      "backed": 3074,
      "priv": 3075,
      "melan": 3076,
      "paper": 3077,
      "escence": 3078,
      "OS": 3079,
      "bla": 3080,
      "cred": 3081,
      "gul": 3082,
      "jar": 3083,
      "nest": 3084,
      "pall": 3085,
      "tut": 3086,
      "inqu": 3087,
      "inex": 3088,
      "issu": 3089,
      "unsc": 3090,
      "roman": 3091,
      "ume": 3092,
      "izers": 3093,
      "peric": 3094,
      "aean": 3095,
      "bler": 3096,
      "eping": 3097,
      "ichthy": 3098,
      "embry": 3099,
      "Gre": 3100,
      "Py": 3101,
      "bum": 3102,
      "dod": 3103,
      "dark": 3104,
      "lot": 3105,
      "mob": 3106,
      "pie": 3107,
      "rating": 3108,
      "slow": 3109,
      "wax": 3110,
      "year": 3111,
      "atal": 3112,
      "unfor": 3113,
      "stop": 3114,
      "apost": 3115,
      "conce": 3116,
      "ips": 3117,
      "anda": 3118,
      "death": 3119,
      "sey": 3120,
      "oblig": 3121,
      "epic": 3122,
      "wear": 3123,
      "corpor": 3124,
      "ographically": 3125,
      "bark": 3126,
      "anced": 3127,
      "otype": 3128,
      "gentle": 3129,
      "EC": 3130,
      "fan": 3131,
      "iidae": 3132,
      "ough": 3133,
      "pow": 3134,
      "vill": 3135,
      "aton": 3136,
      "atta": 3137,
      "alia": 3138,
      "string": 3139,
      "strong": 3140,
      "olf": 3141,
      "phyl": 3142,
      "urer": 3143,
      "then": 3144,
      "oter": 3145,
      "quet": 3146,
      "este": 3147,
      "iana": 3148,
      "arded": 3149,
      "bee": 3150,
      "idean": 3151,
      "brain": 3152,
      "skin": 3153,
      "lastic": 3154,
      "ĠĠĠĠĠĠĠĠ": 3155,
      "iloqu": 3156,
      "Cer": 3157,
      "Dor": 3158,
      "Luc": 3159,
      "bly": 3160,
      "gaz": 3161,
      "jer": 3162,
      "list": 3163,
      "mate": 3164,
      "muc": 3165,
      "mith": 3166,
      "nick": 3167,
      "ook": 3168,
      "eds": 3169,
      "alization": 3170,
      "orig": 3171,
      "lept": 3172,
      "agan": 3173,
      "shell": 3174,
      "shire": 3175,
      "ples": 3176,
      "mechan": 3177,
      "cert": 3178,
      "iently": 3179,
      "immun": 3180,
      "witted": 3181,
      "Ham": 3182,
      "iology": 3183,
      "jaw": 3184,
      "mn": 3185,
      "nin": 3186,
      "pest": 3187,
      "vine": 3188,
      "infer": 3189,
      "ense": 3190,
      "ati": 3191,
      "alizing": 3192,
      "lead": 3193,
      "lyn": 3194,
      "spur": 3195,
      "splen": 3196,
      "hept": 3197,
      "obe": 3198,
      "indic": 3199,
      "ache": 3200,
      "worn": 3201,
      "ruff": 3202,
      "calc": 3203,
      "tuber": 3204,
      "bog": 3205,
      "bright": 3206,
      "kh": 3207,
      "oen": 3208,
      "pinn": 3209,
      "sect": 3210,
      "tent": 3211,
      "ede": 3212,
      "alin": 3213,
      "alth": 3214,
      "ila": 3215,
      "ilar": 3216,
      "ived": 3217,
      "ylic": 3218,
      "enesses": 3219,
      "mother": 3220,
      "hero": 3221,
      "anna": 3222,
      "stern": 3223,
      "passion": 3224,
      "buff": 3225,
      "flav": 3226,
      "gia": 3227,
      "heli": 3228,
      "lust": 3229,
      "rul": 3230,
      "will": 3231,
      "wild": 3232,
      "erd": 3233,
      "anes": 3234,
      "unce": 3235,
      "roof": 3236,
      "thes": 3237,
      "osh": 3238,
      "uted": 3239,
      "suck": 3240,
      "show": 3241,
      "ifier": 3242,
      "epig": 3243,
      "flor": 3244,
      "resist": 3245,
      "haz": 3246,
      "mater": 3247,
      "carbon": 3248,
      "bury": 3249,
      "cere": 3250,
      "ours": 3251,
      "commod": 3252,
      "iphon": 3253,
      "bibli": 3254,
      "penny": 3255,
      "201": 3256,
      "301": 3257,
      "401": 3258,
      "501": 3259,
      "601": 3260,
      "701": 3261,
      "801": 3262,
      "901": 3263,
      "Sk": 3264,
      "She": 3265,
      "dust": 3266,
      "fash": 3267,
      "hav": 3268,
      "honey": 3269,
      "mant": 3270,
      "may": 3271,
      "mov": 3272,
      "wis": 3273,
      "inch": 3274,
      "ision": 3275,
      "orrh": 3276,
      "itted": 3277,
      "elo": 3278,
      "acious": 3279,
      "oting": 3280,
      "odor": 3281,
      "place": 3282,
      "ophore": 3283,
      "articul": 3284,
      "Ã©e": 3285,
      "unting": 3286,
      "omatous": 3287,
      "iasis": 3288,
      "orrhe": 3289,
      "God": 3290,
      "Joh": 3291,
      "Mic": 3292,
      "bath": 3293,
      "cen": 3294,
      "hay": 3295,
      "iri": 3296,
      "lass": 3297,
      "rush": 3298,
      "tan": 3299,
      "vib": 3300,
      "Ãª": 3301,
      "ende": 3302,
      "alog": 3303,
      "unab": 3304,
      "rever": 3305,
      "lying": 3306,
      "asper": 3307,
      "amorph": 3308,
      "tering": 3309,
      "eca": 3310,
      "ago": 3311,
      "irk": 3312,
      "nonde": 3313,
      "neur": 3314,
      "tress": 3315,
      "manship": 3316,
      "atorial": 3317,
      "ahs": 3318,
      "clear": 3319,
      "omorphic": 3320,
      "covered": 3321,
      "Dar": 3322,
      "Fre": 3323,
      "bob": 3324,
      "dre": 3325,
      "hin": 3326,
      "iary": 3327,
      "ning": 3328,
      "xen": 3329,
      "aler": 3330,
      "itions": 3331,
      "iler": 3332,
      "raz": 3333,
      "olysis": 3334,
      "idine": 3335,
      "ribut": 3336,
      "exper": 3337,
      "owl": 3338,
      "aks": 3339,
      "resc": 3340,
      "pole": 3341,
      "ittle": 3342,
      "addle": 3343,
      "view": 3344,
      "Ac": 3345,
      "CS": 3346,
      "Is": 3347,
      "Kar": 3348,
      "PS": 3349,
      "Pseud": 3350,
      "Sam": 3351,
      "lun": 3352,
      "nat": 3353,
      "uther": 3354,
      "wid": 3355,
      "warm": 3356,
      "icle": 3357,
      "revol": 3358,
      "omas": 3359,
      "uts": 3360,
      "ument": 3361,
      "opathy": 3362,
      "ands": 3363,
      "semis": 3364,
      "polar": 3365,
      "rench": 3366,
      "portion": 3367,
      "Arch": 3368,
      "ambul": 3369,
      "urous": 3370,
      "philosoph": 3371,
      "Des": 3372,
      "Mil": 3373,
      "Sol": 3374,
      "bers": 3375,
      "cann": 3376,
      "los": 3377,
      "pas": 3378,
      "pad": 3379,
      "ÃŁ": 3380,
      "iny": 3381,
      "enne": 3382,
      "aters": 3383,
      "icism": 3384,
      "unpre": 3385,
      "lys": 3386,
      "phyll": 3387,
      "aba": 3388,
      "thing": 3389,
      "amen": 3390,
      "umen": 3391,
      "ogene": 3392,
      "ople": 3393,
      "sug": 3394,
      "coff": 3395,
      "iance": 3396,
      "icks": 3397,
      "rone": 3398,
      "even": 3399,
      "type": 3400,
      "butter": 3401,
      "large": 3402,
      "Rob": 3403,
      "fel": 3404,
      "gab": 3405,
      "greg": 3406,
      "host": 3407,
      "iency": 3408,
      "mig": 3409,
      "oed": 3410,
      "pitch": 3411,
      "iso": 3412,
      "ilia": 3413,
      "eting": 3414,
      "emot": 3415,
      "otom": 3416,
      "sure": 3417,
      "iful": 3418,
      "prest": 3419,
      "parad": 3420,
      "acks": 3421,
      "weak": 3422,
      "max": 3423,
      "rates": 3424,
      "inner": 3425,
      "arsen": 3426,
      "predis": 3427,
      "ognath": 3428,
      "invest": 3429,
      "Ash": 3430,
      "Cle": 3431,
      "Cha": 3432,
      "II": 3433,
      "Ir": 3434,
      "UN": 3435,
      "hn": 3436,
      "late": 3437,
      "lact": 3438,
      "tort": 3439,
      "anch": 3440,
      "arin": 3441,
      "arium": 3442,
      "esse": 3443,
      "thin": 3444,
      "osc": 3445,
      "ogloss": 3446,
      "ocal": 3447,
      "appar": 3448,
      "come": 3449,
      "ugg": 3450,
      "intel": 3451,
      "uret": 3452,
      "poet": 3453,
      "ships": 3454,
      "rophy": 3455,
      "plain": 3456,
      "court": 3457,
      "cosm": 3458,
      "Ha": 3459,
      "Jud": 3460,
      "New": 3461,
      "cru": 3462,
      "dich": 3463,
      "pill": 3464,
      "onite": 3465,
      "acro": 3466,
      "urb": 3467,
      "aming": 3468,
      "ague": 3469,
      "agram": 3470,
      "aper": 3471,
      "love": 3472,
      "cool": 3473,
      "promis": 3474,
      "extr": 3475,
      "ellate": 3476,
      "compan": 3477,
      "screw": 3478,
      "aea": 3479,
      "indiv": 3480,
      "ologists": 3481,
      "desc": 3482,
      "omancy": 3483,
      "build": 3484,
      "secret": 3485,
      "respect": 3486,
      "Mag": 3487,
      "Mart": 3488,
      "Ro": 3489,
      "fier": 3490,
      "hung": 3491,
      "nig": 3492,
      "rational": 3493,
      "wil": 3494,
      "anter": 3495,
      "armed": 3496,
      "ori": 3497,
      "enty": 3498,
      "asp": 3499,
      "adic": 3500,
      "ims": 3501,
      "contro": 3502,
      "pread": 3503,
      "isher": 3504,
      "illary": 3505,
      "alling": 3506,
      "fores": 3507,
      "iev": 3508,
      "ints": 3509,
      "icken": 3510,
      "taut": 3511,
      "rons": 3512,
      "haem": 3513,
      "mean": 3514,
      "dermat": 3515,
      "ski": 3516,
      "archy": 3517,
      "belly": 3518,
      "oplasty": 3519,
      "tongue": 3520,
      "keeper": 3521,
      "101": 3522,
      "Ben": 3523,
      "RI": 3524,
      "TS": 3525,
      "Tri": 3526,
      "bind": 3527,
      "cogn": 3528,
      "iating": 3529,
      "jun": 3530,
      "junct": 3531,
      "norm": 3532,
      "sit": 3533,
      "slo": 3534,
      "tide": 3535,
      "oner": 3536,
      "isable": 3537,
      "orate": 3538,
      "unth": 3539,
      "asing": 3540,
      "adow": 3541,
      "otox": 3542,
      "import": 3543,
      "loving": 3544,
      "coura": 3545,
      "rying": 3546,
      "rice": 3547,
      "haust": 3548,
      "haired": 3549,
      "lette": 3550,
      "mete": 3551,
      "cold": 3552,
      "eve": 3553,
      "fox": 3554,
      "eared": 3555,
      "content": 3556,
      "second": 3557,
      "esthesia": 3558,
      "front": 3559,
      "Bon": 3560,
      "Min": 3561,
      "Med": 3562,
      "dal": 3563,
      "dream": 3564,
      "lum": 3565,
      "more": 3566,
      "made": 3567,
      "punct": 3568,
      "tender": 3569,
      "alleg": 3570,
      "aric": 3571,
      "sto": 3572,
      "stiff": 3573,
      "chant": 3574,
      "chang": 3575,
      "olate": 3576,
      "phan": 3577,
      "acanth": 3578,
      "abilities": 3579,
      "emi": 3580,
      "osper": 3581,
      "opin": 3582,
      "ige": 3583,
      "iast": 3584,
      "produc": 3585,
      "pling": 3586,
      "ials": 3587,
      "fuls": 3588,
      "trap": 3589,
      "ached": 3590,
      "away": 3591,
      "evil": 3592,
      "Ann": 3593,
      "gue": 3594,
      "liter": 3595,
      "dipl": 3596,
      "body": 3597,
      "sleep": 3598,
      "otropic": 3599,
      "intellect": 3600,
      "Che": 3601,
      "Mat": 3602,
      "Pat": 3603,
      "cass": 3604,
      "camp": 3605,
      "din": 3606,
      "die": 3607,
      "dors": 3608,
      "hack": 3609,
      "iop": 3610,
      "nose": 3611,
      "ounc": 3612,
      "sag": 3613,
      "tang": 3614,
      "indis": 3615,
      "enes": 3616,
      "uner": 3617,
      "elly": 3618,
      "phag": 3619,
      "osa": 3620,
      "ador": 3621,
      "ocracy": 3622,
      "antit": 3623,
      "loud": 3624,
      "indust": 3625,
      "ostomy": 3626,
      "clin": 3627,
      "ension": 3628,
      "aching": 3629,
      "worthy": 3630,
      "leton": 3631,
      "persu": 3632,
      "respond": 3633,
      "Ca": 3634,
      "DS": 3635,
      "Jac": 3636,
      "Str": 3637,
      "Ty": 3638,
      "five": 3639,
      "fellow": 3640,
      "jet": 3641,
      "lag": 3642,
      "mi": 3643,
      "nod": 3644,
      "power": 3645,
      "itated": 3646,
      "stream": 3647,
      "rial": 3648,
      "iah": 3649,
      "conv": 3650,
      "common": 3651,
      "scut": 3652,
      "aving": 3653,
      "weather": 3654,
      "metal": 3655,
      "maj": 3656,
      "oids": 3657,
      "ancing": 3658,
      "holder": 3659,
      "great": 3660,
      "algia": 3661,
      "Lor": 3662,
      "Prot": 3663,
      "Plat": 3664,
      "Sil": 3665,
      "aid": 3666,
      "bish": 3667,
      "dur": 3668,
      "fen": 3669,
      "fant": 3670,
      "gs": 3671,
      "pond": 3672,
      "sod": 3673,
      "oni": 3674,
      "unen": 3675,
      "sty": 3676,
      "cht": 3677,
      "raft": 3678,
      "olin": 3679,
      "empl": 3680,
      "ames": 3681,
      "quiet": 3682,
      "cele": 3683,
      "pref": 3684,
      "trit": 3685,
      "club": 3686,
      "iere": 3687,
      "ularly": 3688,
      "gery": 3689,
      "brand": 3690,
      "door": 3691,
      "rhiz": 3692,
      "urable": 3693,
      "satis": 3694,
      "employ": 3695,
      "first": 3696,
      "Im": 3697,
      "LI": 3698,
      "LO": 3699,
      "Mah": 3700,
      "Po": 3701,
      "Poly": 3702,
      "Ul": 3703,
      "Ur": 3704,
      "mum": 3705,
      "sob": 3706,
      "uz": 3707,
      "uate": 3708,
      "wine": 3709,
      "isse": 3710,
      "ingen": 3711,
      "ello": 3712,
      "stim": 3713,
      "state": 3714,
      "ilian": 3715,
      "ember": 3716,
      "advent": 3717,
      "ota": 3718,
      "immer": 3719,
      "erson": 3720,
      "proct": 3721,
      "expl": 3722,
      "ialist": 3723,
      "ialism": 3724,
      "assoc": 3725,
      "epith": 3726,
      "ortic": 3727,
      "acher": 3728,
      "corrupt": 3729,
      "metaph": 3730,
      "carb": 3731,
      "wound": 3732,
      "brick": 3733,
      "oured": 3734,
      "aft": 3735,
      "ails": 3736,
      "ettes": 3737,
      "penet": 3738,
      "sheep": 3739,
      "ophyte": 3740,
      "Trans": 3741,
      "bass": 3742,
      "cog": 3743,
      "gib": 3744,
      "iar": 3745,
      "lis": 3746,
      "nucle": 3747,
      "sque": 3748,
      "uer": 3749,
      "uan": 3750,
      "wag": 3751,
      "women": 3752,
      "erc": 3753,
      "incom": 3754,
      "start": 3755,
      "accept": 3756,
      "thread": 3757,
      "eming": 3758,
      "ammon": 3759,
      "coat": 3760,
      "asting": 3761,
      "forest": 3762,
      "ophile": 3763,
      "oking": 3764,
      "tour": 3765,
      "metall": 3766,
      "sole": 3767,
      "othe": 3768,
      "dece": 3769,
      "curs": 3770,
      "legged": 3771,
      "ethn": 3772,
      "worker": 3773,
      "melod": 3774,
      "mindedness": 3775,
      "folk": 3776,
      "iddle": 3777,
      "tongued": 3778,
      "possess": 3779,
      "fruit": 3780,
      "church": 3781,
      "Gall": 3782,
      "cyl": 3783,
      "cust": 3784,
      "dynam": 3785,
      "gth": 3786,
      "lod": 3787,
      "pink": 3788,
      "vy": 3789,
      "vell": 3790,
      "inian": 3791,
      "ician": 3792,
      "univers": 3793,
      "chel": 3794,
      "pharm": 3795,
      "tha": 3796,
      "embar": 3797,
      "amet": 3798,
      "vern": 3799,
      "perit": 3800,
      "estim": 3801,
      "subject": 3802,
      "epit": 3803,
      "epist": 3804,
      "correct": 3805,
      "carp": 3806,
      "whit": 3807,
      "ymph": 3808,
      "reflect": 3809,
      "otherapy": 3810,
      "lady": 3811,
      "pipe": 3812,
      "Jo": 3813,
      "Tar": 3814,
      "bay": 3815,
      "flex": 3816,
      "kat": 3817,
      "lent": 3818,
      "tz": 3819,
      "trem": 3820,
      "yst": 3821,
      "invol": 3822,
      "alph": 3823,
      "arbit": 3824,
      "isth": 3825,
      "oration": 3826,
      "itical": 3827,
      "rogen": 3828,
      "oment": 3829,
      "idin": 3830,
      "idness": 3831,
      "urban": 3832,
      "ogy": 3833,
      "iae": 3834,
      "iped": 3835,
      "exist": 3836,
      "uding": 3837,
      "scur": 3838,
      "ensit": 3839,
      "travel": 3840,
      "hound": 3841,
      "megal": 3842,
      "rows": 3843,
      "aneous": 3844,
      "relig": 3845,
      "enced": 3846,
      "steel": 3847,
      "instruct": 3848,
      "Bab": 3849,
      "Dan": 3850,
      "Vol": 3851,
      "War": 3852,
      "bomb": 3853,
      "cic": 3854,
      "dum": 3855,
      "eing": 3856,
      "fest": 3857,
      "gym": 3858,
      "plo": 3859,
      "pose": 3860,
      "tun": 3861,
      "wro": 3862,
      "alo": 3863,
      "itism": 3864,
      "itarian": 3865,
      "christ": 3866,
      "omot": 3867,
      "ulum": 3868,
      "thorn": 3869,
      "opar": 3870,
      "odynam": 3871,
      "laim": 3872,
      "scap": 3873,
      "teen": 3874,
      "aka": 3875,
      "indul": 3876,
      "brut": 3877,
      "azz": 3878,
      "ogeny": 3879,
      "there": 3880,
      "ifications": 3881,
      "ometrical": 3882,
      "devil": 3883,
      "nosed": 3884,
      "perfect": 3885,
      "CC": 3886,
      "Der": 3887,
      "Ho": 3888,
      "Jer": 3889,
      "crit": 3890,
      "dition": 3891,
      "fla": 3892,
      "talk": 3893,
      "stal": 3894,
      "stor": 3895,
      "ionally": 3896,
      "istry": 3897,
      "appoint": 3898,
      "ques": 3899,
      "irrit": 3900,
      "shel": 3901,
      "proph": 3902,
      "sever": 3903,
      "neut": 3904,
      "truth": 3905,
      "icker": 3906,
      "semin": 3907,
      "south": 3908,
      "ulture": 3909,
      "troph": 3910,
      "square": 3911,
      "elessness": 3912,
      "Aust": 3913,
      "Far": 3914,
      "IR": 3915,
      "Meg": 3916,
      "Sab": 3917,
      "gru": 3918,
      "mine": 3919,
      "nid": 3920,
      "pict": 3921,
      "uously": 3922,
      "where": 3923,
      "inus": 3924,
      "atis": 3925,
      "alco": 3926,
      "alistic": 3927,
      "ariness": 3928,
      "represent": 3929,
      "oming": 3930,
      "etal": 3931,
      "imal": 3932,
      "apod": 3933,
      "nonper": 3934,
      "nondis": 3935,
      "sher": 3936,
      "ipit": 3937,
      "express": 3938,
      "plen": 3939,
      "tris": 3940,
      "money": 3941,
      "command": 3942,
      "motor": 3943,
      "milit": 3944,
      "sacchar": 3945,
      "summer": 3946,
      "individ": 3947,
      "Cur": 3948,
      "EM": 3949,
      "Sher": 3950,
      "Will": 3951,
      "branch": 3952,
      "crum": 3953,
      "ez": 3954,
      "frost": 3955,
      "gi": 3956,
      "kal": 3957,
      "pain": 3958,
      "atom": 3959,
      "itory": 3960,
      "still": 3961,
      "storm": 3962,
      "oline": 3963,
      "phren": 3964,
      "entness": 3965,
      "antid": 3966,
      "icality": 3967,
      "undec": 3968,
      "observ": 3969,
      "gled": 3970,
      "grad": 3971,
      "brained": 3972,
      "ynia": 3973,
      "heads": 3974,
      "inning": 3975,
      "calcul": 3976,
      "stein": 3977,
      "steep": 3978,
      "schiz": 3979,
      "capt": 3980,
      "eryth": 3981,
      "priest": 3982,
      "rhin": 3983,
      "button": 3984,
      "photo": 3985,
      "respons": 3986,
      "profess": 3987,
      "Ev": 3988,
      "Ital": 3989,
      "OL": 3990,
      "SS": 3991,
      "Wal": 3992,
      "bast": 3993,
      "cement": 3994,
      "got": 3995,
      "lux": 3996,
      "mism": 3997,
      "mira": 3998,
      "wal": 3999,
      "wonder": 4000,
      "inher": 4001,
      "unge": 4002,
      "uninter": 4003,
      "requ": 4004,
      "eline": 4005,
      "stown": 4006,
      "acer": 4007,
      "acle": 4008,
      "otes": 4009,
      "utch": 4010,
      "ogly": 4011,
      "econ": 4012,
      "opro": 4013,
      "ells": 4014,
      "heat": 4015,
      "heaven": 4016,
      "scul": 4017,
      "angled": 4018,
      "boot": 4019,
      "ostom": 4020,
      "track": 4021,
      "aches": 4022,
      "rede": 4023,
      "main": 4024,
      "poll": 4025,
      "barbar": 4026,
      "typ": 4027,
      "typh": 4028,
      "Anglo": 4029,
      "medic": 4030,
      "twel": 4031,
      "ochem": 4032,
      "drag": 4033,
      "heartedness": 4034,
      "cloud": 4035,
      "transp": 4036,
      "tempor": 4037,
      "sympath": 4038,
      "crystall": 4039,
      "acetyl": 4040,
      "Clar": 4041,
      "crop": 4042,
      "dul": 4043,
      "fine": 4044,
      "hid": 4045,
      "hill": 4046,
      "kill": 4047,
      "lingly": 4048,
      "lord": 4049,
      "mers": 4050,
      "rend": 4051,
      "si": 4052,
      "tus": 4053,
      "tant": 4054,
      "yan": 4055,
      "inite": 4056,
      "anism": 4057,
      "unv": 4058,
      "learn": 4059,
      "staff": 4060,
      "stitch": 4061,
      "rapt": 4062,
      "omon": 4063,
      "phor": 4064,
      "ente": 4065,
      "opp": 4066,
      "ationally": 4067,
      "ifiable": 4068,
      "laud": 4069,
      "ellig": 4070,
      "seven": 4071,
      "heavy": 4072,
      "tru": 4073,
      "ialize": 4074,
      "formal": 4075,
      "paralle": 4076,
      "ureter": 4077,
      "plement": 4078,
      "posing": 4079,
      "twin": 4080,
      "unning": 4081,
      "character": 4082,
      "hammer": 4083,
      "timber": 4084,
      "galvan": 4085,
      "compens": 4086,
      "expect": 4087,
      "Pseudo": 4088,
      "Bas": 4089,
      "Dem": 4090,
      "ID": 4091,
      "Men": 4092,
      "Sw": 4093,
      "Sel": 4094,
      "Tra": 4095,
      "gob": 4096,
      "gain": 4097,
      "grown": 4098,
      "hl": 4099,
      "kers": 4100,
      "north": 4101,
      "pep": 4102,
      "isa": 4103,
      "orian": 4104,
      "orbit": 4105,
      "rear": 4106,
      "chair": 4107,
      "rage": 4108,
      "acco": 4109,
      "rift": 4110,
      "imit": 4111,
      "agraph": 4112,
      "append": 4113,
      "iring": 4114,
      "ava": 4115,
      "beaut": 4116,
      "indig": 4117,
      "subs": 4118,
      "epid": 4119,
      "rann": 4120,
      "ights": 4121,
      "whis": 4122,
      "cheek": 4123,
      "ancies": 4124,
      "affect": 4125,
      "issa": 4126,
      "lands": 4127,
      "steam": 4128,
      "consider": 4129,
      "puls": 4130,
      "effect": 4131,
      "orrhea": 4132,
      "Di": 4133,
      "Jan": 4134,
      "Land": 4135,
      "Met": 4136,
      "Red": 4137,
      "dactyl": 4138,
      "jam": 4139,
      "mock": 4140,
      "plow": 4141,
      "tat": 4142,
      "ws": 4143,
      "witch": 4144,
      "xer": 4145,
      "romat": 4146,
      "chief": 4147,
      "rax": 4148,
      "ulose": 4149,
      "imb": 4150,
      "anted": 4151,
      "lov": 4152,
      "establ": 4153,
      "cob": 4154,
      "coen": 4155,
      "elli": 4156,
      "illust": 4157,
      "ront": 4158,
      "semid": 4159,
      "ahed": 4160,
      "Ã©s": 4161,
      "brachy": 4162,
      "ashed": 4163,
      "inks": 4164,
      "breast": 4165,
      "iction": 4166,
      "electric": 4167,
      "rophic": 4168,
      "houses": 4169,
      "compass": 4170,
      "labor": 4171,
      "billed": 4172,
      "physi": 4173,
      "German": 4174,
      "chromat": 4175,
      "meteor": 4176,
      "Bern": 4177,
      "Phy": 4178,
      "UR": 4179,
      "Wood": 4180,
      "aust": 4181,
      "crest": 4182,
      "gol": 4183,
      "nu": 4184,
      "nap": 4185,
      "tack": 4186,
      "vil": 4187,
      "atable": 4188,
      "union": 4189,
      "reb": 4190,
      "reass": 4191,
      "refer": 4192,
      "elph": 4193,
      "phth": 4194,
      "aces": 4195,
      "acity": 4196,
      "absor": 4197,
      "osm": 4198,
      "tery": 4199,
      "impl": 4200,
      "oping": 4201,
      "ocol": 4202,
      "quint": 4203,
      "ipe": 4204,
      "complex": 4205,
      "ows": 4206,
      "uble": 4207,
      "upe": 4208,
      "weigh": 4209,
      "hoof": 4210,
      "activ": 4211,
      "letter": 4212,
      "ruction": 4213,
      "grave": 4214,
      "bral": 4215,
      "axis": 4216,
      "backs": 4217,
      "omaniac": 4218,
      "recogn": 4219,
      "equip": 4220,
      "finger": 4221,
      "Cast": 4222,
      "Do": 4223,
      "Fer": 4224,
      "Go": 4225,
      "ION": 4226,
      "Lam": 4227,
      "Pel": 4228,
      "ault": 4229,
      "bip": 4230,
      "duck": 4231,
      "drum": 4232,
      "eight": 4233,
      "gir": 4234,
      "hs": 4235,
      "nur": 4236,
      "num": 4237,
      "pock": 4238,
      "ruc": 4239,
      "rator": 4240,
      "tall": 4241,
      "tie": 4242,
      "ui": 4243,
      "voy": 4244,
      "was": 4245,
      "wait": 4246,
      "invent": 4247,
      "aty": 4248,
      "icing": 4249,
      "orient": 4250,
      "sta": 4251,
      "ulf": 4252,
      "urus": 4253,
      "amor": 4254,
      "ady": 4255,
      "imo": 4256,
      "igmat": 4257,
      "ocean": 4258,
      "apprec": 4259,
      "ando": 4260,
      "spread": 4261,
      "hyn": 4262,
      "trick": 4263,
      "tee": 4264,
      "angular": 4265,
      "geal": 4266,
      "gling": 4267,
      "glad": 4268,
      "veget": 4269,
      "marsh": 4270,
      "feather": 4271,
      "myx": 4272,
      "ashing": 4273,
      "ika": 4274,
      "verse": 4275,
      "smith": 4276,
      "borne": 4277,
      "vision": 4278,
      "oscopic": 4279,
      "civil": 4280,
      "Ba": 4281,
      "Bor": 4282,
      "Cro": 4283,
      "Gen": 4284,
      "Lev": 4285,
      "Pr": 4286,
      "aine": 4287,
      "clav": 4288,
      "gos": 4289,
      "gment": 4290,
      "hatch": 4291,
      "lang": 4292,
      "oot": 4293,
      "pine": 4294,
      "zel": 4295,
      "inger": 4296,
      "stip": 4297,
      "chim": 4298,
      "idic": 4299,
      "idence": 4300,
      "ulae": 4301,
      "amus": 4302,
      "quart": 4303,
      "separ": 4304,
      "prepar": 4305,
      "neigh": 4306,
      "bleness": 4307,
      "ostic": 4308,
      "athered": 4309,
      "fee": 4310,
      "brom": 4311,
      "going": 4312,
      "ailed": 4313,
      "infra": 4314,
      "ception": 4315,
      "iliar": 4316,
      "milk": 4317,
      "cardi": 4318,
      "bodied": 4319,
      "narrow": 4320,
      "apeut": 4321,
      "success": 4322,
      "bridge": 4323,
      "crowned": 4324,
      "AG": 4325,
      "Bol": 4326,
      "aen": 4327,
      "dow": 4328,
      "fif": 4329,
      "gust": 4330,
      "hors": 4331,
      "jew": 4332,
      "mess": 4333,
      "sig": 4334,
      "say": 4335,
      "uated": 4336,
      "wet": 4337,
      "inth": 4338,
      "inspir": 4339,
      "arab": 4340,
      "elig": 4341,
      "stret": 4342,
      "ethyl": 4343,
      "ione": 4344,
      "pher": 4345,
      "ems": 4346,
      "amyl": 4347,
      "adj": 4348,
      "umn": 4349,
      "ivorous": 4350,
      "igraph": 4351,
      "irid": 4352,
      "nonad": 4353,
      "sugar": 4354,
      "ests": 4355,
      "shut": 4356,
      "andy": 4357,
      "illion": 4358,
      "prison": 4359,
      "trum": 4360,
      "ialness": 4361,
      "forth": 4362,
      "dering": 4363,
      "ultur": 4364,
      "broken": 4365,
      "All": 4366,
      "ughter": 4367,
      "turb": 4368,
      "patron": 4369,
      "pressed": 4370,
      "belie": 4371,
      "joint": 4372,
      "ocratic": 4373,
      "hawk": 4374,
      "determin": 4375,
      "AB": 4376,
      "Amer": 4377,
      "Cass": 4378,
      "Lat": 4379,
      "Roman": 4380,
      "bub": 4381,
      "fresh": 4382,
      "lung": 4383,
      "mitt": 4384,
      "nie": 4385,
      "rar": 4386,
      "uation": 4387,
      "uousness": 4388,
      "inity": 4389,
      "oning": 4390,
      "anne": 4391,
      "altern": 4392,
      "rection": 4393,
      "sters": 4394,
      "chis": 4395,
      "thi": 4396,
      "river": 4397,
      "opo": 4398,
      "optim": 4399,
      "verte": 4400,
      "contr": 4401,
      "shar": 4402,
      "process": 4403,
      "prick": 4404,
      "scor": 4405,
      "okes": 4406,
      "rance": 4407,
      "hered": 4408,
      "metric": 4409,
      "anned": 4410,
      "myst": 4411,
      "woods": 4412,
      "ridden": 4413,
      "access": 4414,
      "domin": 4415,
      "iculate": 4416,
      "cutting": 4417,
      "zzle": 4418,
      "thorough": 4419,
      "ING": 4420,
      "Ã¨re": 4421,
      "substant": 4422,
      "DI": 4423,
      "Flor": 4424,
      "Il": 4425,
      "Lo": 4426,
      "On": 4427,
      "Rom": 4428,
      "Tor": 4429,
      "ci": 4430,
      "eon": 4431,
      "eas": 4432,
      "fi": 4433,
      "fr": 4434,
      "father": 4435,
      "joc": 4436,
      "lick": 4437,
      "national": 4438,
      "pore": 4439,
      "uco": 4440,
      "alter": 4441,
      "itim": 4442,
      "rass": 4443,
      "olytic": 4444,
      "phar": 4445,
      "amel": 4446,
      "ocon": 4447,
      "noncom": 4448,
      "conduct": 4449,
      "esting": 4450,
      "sham": 4451,
      "shaw": 4452,
      "coated": 4453,
      "prote": 4454,
      "compar": 4455,
      "plas": 4456,
      "atedness": 4457,
      "ophen": 4458,
      "taw": 4459,
      "trache": 4460,
      "hour": 4461,
      "coron": 4462,
      "feud": 4463,
      "brach": 4464,
      "ashes": 4465,
      "copy": 4466,
      "ritis": 4467,
      "ighter": 4468,
      "rotic": 4469,
      "caus": 4470,
      "strate": 4471,
      "contract": 4472,
      "bronch": 4473,
      "question": 4474,
      "fashion": 4475,
      "suggest": 4476,
      "Mid": 4477,
      "Mill": 4478,
      "ao": 4479,
      "bond": 4480,
      "canc": 4481,
      "dan": 4482,
      "dat": 4483,
      "dock": 4484,
      "fit": 4485,
      "fug": 4486,
      "nan": 4487,
      "nem": 4488,
      "pont": 4489,
      "sad": 4490,
      "sir": 4491,
      "inize": 4492,
      "influ": 4493,
      "alc": 4494,
      "rey": 4495,
      "roc": 4496,
      "change": 4497,
      "ules": 4498,
      "throw": 4499,
      "agia": 4500,
      "quant": 4501,
      "cox": 4502,
      "spoken": 4503,
      "prefer": 4504,
      "hyal": 4505,
      "true": 4506,
      "manif": 4507,
      "force": 4508,
      "diss": 4509,
      "athed": 4510,
      "ovel": 4511,
      "web": 4512,
      "insur": 4513,
      "moun": 4514,
      "too": 4515,
      "gluc": 4516,
      "diam": 4517,
      "politic": 4518,
      "fever": 4519,
      "triple": 4520,
      "igned": 4521,
      "ondyl": 4522,
      "goose": 4523,
      "uality": 4524,
      "paint": 4525,
      "bitter": 4526,
      "atured": 4527,
      "sanct": 4528,
      "toothed": 4529,
      "olatry": 4530,
      "AF": 4531,
      "Cat": 4532,
      "Call": 4533,
      "Reg": 4534,
      "XX": 4535,
      "Ze": 4536,
      "bold": 4537,
      "cros": 4538,
      "cram": 4539,
      "foss": 4540,
      "syl": 4541,
      "somn": 4542,
      "vor": 4543,
      "wre": 4544,
      "anite": 4545,
      "atus": 4546,
      "edged": 4547,
      "itution": 4548,
      "stir": 4549,
      "ilation": 4550,
      "olo": 4551,
      "osed": 4552,
      "uma": 4553,
      "oglo": 4554,
      "ogast": 4555,
      "ocard": 4556,
      "antine": 4557,
      "spot": 4558,
      "clus": 4559,
      "intellig": 4560,
      "semif": 4561,
      "ratt": 4562,
      "anner": 4563,
      "brass": 4564,
      "twenty": 4565,
      "snake": 4566,
      "theor": 4567,
      "capital": 4568,
      "contin": 4569,
      "commend": 4570,
      "ettle": 4571,
      "recip": 4572,
      "Ind": 4573,
      "divers": 4574,
      "modern": 4575,
      "esthetic": 4576,
      "oplastic": 4577,
      "young": 4578,
      "princip": 4579,
      "Ara": 4580,
      "Hen": 4581,
      "IM": 4582,
      "Port": 4583,
      "SP": 4584,
      "Tre": 4585,
      "ees": 4586,
      "fog": 4587,
      "fret": 4588,
      "fond": 4589,
      "govern": 4590,
      "ioid": 4591,
      "lub": 4592,
      "lily": 4593,
      "mim": 4594,
      "pian": 4595,
      "psy": 4596,
      "sic": 4597,
      "sie": 4598,
      "tag": 4599,
      "uel": 4600,
      "vapor": 4601,
      "wr": 4602,
      "wrong": 4603,
      "inet": 4604,
      "ensu": 4605,
      "atri": 4606,
      "icide": 4607,
      "undef": 4608,
      "leb": 4609,
      "stren": 4610,
      "ilize": 4611,
      "ulter": 4612,
      "entially": 4613,
      "through": 4614,
      "embro": 4615,
      "amide": 4616,
      "osyn": 4617,
      "opic": 4618,
      "opia": 4619,
      "igerous": 4620,
      "antin": 4621,
      "load": 4622,
      "conserv": 4623,
      "coel": 4624,
      "spong": 4625,
      "ellar": 4626,
      "ibilities": 4627,
      "plag": 4628,
      "prud": 4629,
      "clar": 4630,
      "intim": 4631,
      "trag": 4632,
      "hoe": 4633,
      "polys": 4634,
      "foul": 4635,
      "cern": 4636,
      "incre": 4637,
      "purple": 4638,
      "forming": 4639,
      "flowered": 4640,
      "bolt": 4641,
      "symbol": 4642,
      "spermat": 4643,
      "bearer": 4644,
      "Cas": 4645,
      "Mes": 4646,
      "Mur": 4647,
      "Mos": 4648,
      "OT": 4649,
      "Tam": 4650,
      "West": 4651,
      "bree": 4652,
      "dou": 4653,
      "fy": 4654,
      "fid": 4655,
      "frog": 4656,
      "gur": 4657,
      "hast": 4658,
      "jol": 4659,
      "jum": 4660,
      "kan": 4661,
      "lamp": 4662,
      "panc": 4663,
      "sne": 4664,
      "sold": 4665,
      "sburg": 4666,
      "upl": 4667,
      "vio": 4668,
      "xes": 4669,
      "erer": 4670,
      "energ": 4671,
      "atives": 4672,
      "alities": 4673,
      "arct": 4674,
      "itous": 4675,
      "level": 4676,
      "stam": 4677,
      "struct": 4678,
      "idan": 4679,
      "abstra": 4680,
      "uting": 4681,
      "odi": 4682,
      "apa": 4683,
      "apple": 4684,
      "ipper": 4685,
      "propri": 4686,
      "devel": 4687,
      "ishable": 4688,
      "hypers": 4689,
      "obed": 4690,
      "plot": 4691,
      "mond": 4692,
      "haphy": 4693,
      "eval": 4694,
      "bare": 4695,
      "oxal": 4696,
      "trip": 4697,
      "myr": 4698,
      "duction": 4699,
      "capit": 4700,
      "plication": 4701,
      "smoke": 4702,
      "Je": 4703,
      "No": 4704,
      "Ple": 4705,
      "Rich": 4706,
      "Tal": 4707,
      "Tim": 4708,
      "buc": 4709,
      "cies": 4710,
      "cens": 4711,
      "caut": 4712,
      "cosis": 4713,
      "differ": 4714,
      "eleg": 4715,
      "fill": 4716,
      "later": 4717,
      "mund": 4718,
      "must": 4719,
      "muck": 4720,
      "nine": 4721,
      "pand": 4722,
      "sau": 4723,
      "sangu": 4724,
      "tart": 4725,
      "vid": 4726,
      "wester": 4727,
      "unfl": 4728,
      "elab": 4729,
      "elite": 4730,
      "stup": 4731,
      "chet": 4732,
      "idol": 4733,
      "ulative": 4734,
      "acre": 4735,
      "absol": 4736,
      "istle": 4737,
      "agglut": 4738,
      "igne": 4739,
      "ococc": 4740,
      "iflor": 4741,
      "spo": 4742,
      "elles": 4743,
      "heath": 4744,
      "obs": 4745,
      "near": 4746,
      "scope": 4747,
      "atedly": 4748,
      "rypt": 4749,
      "beam": 4750,
      "aya": 4751,
      "cles": 4752,
      "moid": 4753,
      "toid": 4754,
      "acted": 4755,
      "poison": 4756,
      "ighted": 4757,
      "maz": 4758,
      "feed": 4759,
      "iki": 4760,
      "ailing": 4761,
      "lines": 4762,
      "support": 4763,
      "phenyl": 4764,
      "ponder": 4765,
      "lichen": 4766,
      "ranchiate": 4767,
      "Bu": 4768,
      "Brit": 4769,
      "Gil": 4770,
      "Glen": 4771,
      "OP": 4772,
      "Ol": 4773,
      "SE": 4774,
      "Sa": 4775,
      "bent": 4776,
      "bru": 4777,
      "bore": 4778,
      "dend": 4779,
      "dub": 4780,
      "dens": 4781,
      "gill": 4782,
      "kish": 4783,
      "link": 4784,
      "laryng": 4785,
      "oin": 4786,
      "oidea": 4787,
      "pell": 4788,
      "push": 4789,
      "pachy": 4790,
      "soph": 4791,
      "uction": 4792,
      "wolf": 4793,
      "yrin": 4794,
      "onal": 4795,
      "atrix": 4796,
      "iture": 4797,
      "rece": 4798,
      "rome": 4799,
      "eland": 4800,
      "stub": 4801,
      "chuck": 4802,
      "rah": 4803,
      "ulates": 4804,
      "embra": 4805,
      "ogue": 4806,
      "aga": 4807,
      "anton": 4808,
      "convent": 4809,
      "shed": 4810,
      "prob": 4811,
      "dehy": 4812,
      "exped": 4813,
      "pren": 4814,
      "mans": 4815,
      "foret": 4816,
      "bless": 4817,
      "oved": 4818,
      "acting": 4819,
      "active": 4820,
      "gles": 4821,
      "method": 4822,
      "semim": 4823,
      "eville": 4824,
      "ropod": 4825,
      "feas": 4826,
      "brook": 4827,
      "straw": 4828,
      "rubber": 4829,
      "platy": 4830,
      "speed": 4831,
      "golden": 4832,
      "drawn": 4833,
      "discip": 4834,
      "tubercul": 4835,
      "pharmac": 4836,
      "AU": 4837,
      "Cher": 4838,
      "Dam": 4839,
      "Dec": 4840,
      "Neg": 4841,
      "Pa": 4842,
      "Sta": 4843,
      "bun": 4844,
      "cous": 4845,
      "cach": 4846,
      "furn": 4847,
      "fasc": 4848,
      "gad": 4849,
      "hort": 4850,
      "ply": 4851,
      "pull": 4852,
      "sort": 4853,
      "tid": 4854,
      "tens": 4855,
      "onism": 4856,
      "eses": 4857,
      "atical": 4858,
      "reim": 4859,
      "stad": 4860,
      "stalk": 4861,
      "chop": 4862,
      "chir": 4863,
      "ionic": 4864,
      "aciously": 4865,
      "about": 4866,
      "utes": 4867,
      "terror": 4868,
      "suit": 4869,
      "cook": 4870,
      "spoon": 4871,
      "udes": 4872,
      "udge": 4873,
      "pris": 4874,
      "scot": 4875,
      "ugn": 4876,
      "ayed": 4877,
      "aying": 4878,
      "ophon": 4879,
      "gee": 4880,
      "ureth": 4881,
      "moor": 4882,
      "leted": 4883,
      "mata": 4884,
      "tonic": 4885,
      "auth": 4886,
      "rative": 4887,
      "ouring": 4888,
      "headedness": 4889,
      "swift": 4890,
      "rell": 4891,
      "kerat": 4892,
      "sorrow": 4893,
      "grim": 4894,
      "lemn": 4895,
      "soci": 4896,
      "propag": 4897,
      "bottle": 4898,
      "albumin": 4899,
      "CL": 4900,
      "Fred": 4901,
      "Ga": 4902,
      "Green": 4903,
      "Ker": 4904,
      "Lu": 4905,
      "Lyn": 4906,
      "Rh": 4907,
      "Russ": 4908,
      "San": 4909,
      "aun": 4910,
      "aim": 4911,
      "fut": 4912,
      "fung": 4913,
      "gird": 4914,
      "iper": 4915,
      "jig": 4916,
      "kel": 4917,
      "kid": 4918,
      "laden": 4919,
      "oing": 4920,
      "sword": 4921,
      "vass": 4922,
      "who": 4923,
      "wrap": 4924,
      "zar": 4925,
      "alised": 4926,
      "icip": 4927,
      "icient": 4928,
      "order": 4929,
      "chain": 4930,
      "aced": 4931,
      "acad": 4932,
      "aciousness": 4933,
      "dep": 4934,
      "execut": 4935,
      "spotted": 4936,
      "see": 4937,
      "seism": 4938,
      "sevent": 4939,
      "preter": 4940,
      "heim": 4941,
      "illes": 4942,
      "aller": 4943,
      "ectomies": 4944,
      "assum": 4945,
      "pearl": 4946,
      "urea": 4947,
      "haul": 4948,
      "matical": 4949,
      "glac": 4950,
      "make": 4951,
      "ithec": 4952,
      "what": 4953,
      "ungu": 4954,
      "marked": 4955,
      "trim": 4956,
      "guar": 4957,
      "reek": 4958,
      "duod": 4959,
      "anked": 4960,
      "theat": 4961,
      "working": 4962,
      "expans": 4963,
      "crust": 4964,
      "thorac": 4965,
      "oxygen": 4966,
      "Cyn": 4967,
      "Long": 4968,
      "So": 4969,
      "Vir": 4970,
      "bif": 4971,
      "bie": 4972,
      "cis": 4973,
      "cid": 4974,
      "cine": 4975,
      "critic": 4976,
      "dit": 4977,
      "dot": 4978,
      "fund": 4979,
      "fied": 4980,
      "gay": 4981,
      "kit": 4982,
      "kick": 4983,
      "lies": 4984,
      "lace": 4985,
      "naph": 4986,
      "pum": 4987,
      "pav": 4988,
      "tig": 4989,
      "text": 4990,
      "vap": 4991,
      "vex": 4992,
      "wife": 4993,
      "Ã¥": 4994,
      "enite": 4995,
      "aris": 4996,
      "arith": 4997,
      "iche": 4998,
      "icated": 4999,
      "orb": 5000,
      "ington": 5001,
      "unbl": 5002,
      "leather": 5003,
      "chil": 5004,
      "omes": 5005,
      "eti": 5006,
      "phem": 5007,
      "ulator": 5008,
      "ulations": 5009,
      "accent": 5010,
      "emor": 5011,
      "advert": 5012,
      "administ": 5013,
      "otome": 5014,
      "ista": 5015,
      "quit": 5016,
      "quil": 5017,
      "verb": 5018,
      "coup": 5019,
      "space": 5020,
      "split": 5021,
      "illi": 5022,
      "illumin": 5023,
      "never": 5024,
      "forg": 5025,
      "pton": 5026,
      "assert": 5027,
      "worship": 5028,
      "matically": 5029,
      "glor": 5030,
      "methyl": 5031,
      "sou": 5032,
      "gradu": 5033,
      "fertil": 5034,
      "unci": 5035,
      "swing": 5036,
      "trot": 5037,
      "demi": 5038,
      "aphyl": 5039,
      "egg": 5040,
      "cake": 5041,
      "catch": 5042,
      "formation": 5043,
      "bald": 5044,
      "transc": 5045,
      "voiced": 5046,
      "ocyan": 5047,
      "fract": 5048,
      "condens": 5049,
      "appropri": 5050,
      "spher": 5051,
      "ophthalm": 5052,
      "twelve": 5053,
      "Alex": 5054,
      "Cre": 5055,
      "Du": 5056,
      "Gold": 5057,
      "Kal": 5058,
      "Mas": 5059,
      "Ot": 5060,
      "SC": 5061,
      "Su": 5062,
      "Tro": 5063,
      "Wel": 5064,
      "cip": 5065,
      "farm": 5066,
      "frag": 5067,
      "kar": 5068,
      "langu": 5069,
      "mun": 5070,
      "mug": 5071,
      "nim": 5072,
      "pard": 5073,
      "rism": 5074,
      "tell": 5075,
      "ania": 5076,
      "atically": 5077,
      "unhe": 5078,
      "leen": 5079,
      "stag": 5080,
      "urin": 5081,
      "amper": 5082,
      "oton": 5083,
      "otomies": 5084,
      "riage": 5085,
      "odend": 5086,
      "sud": 5087,
      "loose": 5088,
      "convers": 5089,
      "proto": 5090,
      "undes": 5091,
      "ibil": 5092,
      "allen": 5093,
      "ylike": 5094,
      "train": 5095,
      "cym": 5096,
      "peg": 5097,
      "mole": 5098,
      "tool": 5099,
      "toad": 5100,
      "haemat": 5101,
      "pour": 5102,
      "semit": 5103,
      "woe": 5104,
      "tons": 5105,
      "tym": 5106,
      "annel": 5107,
      "fear": 5108,
      "caly": 5109,
      "central": 5110,
      "anks": 5111,
      "arius": 5112,
      "ometrically": 5113,
      "squam": 5114,
      "crim": 5115,
      "arianism": 5116,
      "embran": 5117,
      "excit": 5118,
      "flood": 5119,
      "strip": 5120,
      "Whit": 5121,
      "candle": 5122,
      "necess": 5123,
      "favor": 5124,
      "dehyde": 5125,
      "Ak": 5126,
      "By": 5127,
      "Ful": 5128,
      "Lin": 5129,
      "OC": 5130,
      "Ram": 5131,
      "aire": 5132,
      "fring": 5133,
      "hir": 5134,
      "kary": 5135,
      "pis": 5136,
      "pans": 5137,
      "swell": 5138,
      "tob": 5139,
      "wy": 5140,
      "wen": 5141,
      "ince": 5142,
      "inism": 5143,
      "onn": 5144,
      "arr": 5145,
      "arious": 5146,
      "icht": 5147,
      "rash": 5148,
      "rade": 5149,
      "ido": 5150,
      "entre": 5151,
      "entom": 5152,
      "abs": 5153,
      "ami": 5154,
      "rival": 5155,
      "opex": 5156,
      "ocry": 5157,
      "odic": 5158,
      "antes": 5159,
      "antness": 5160,
      "ipter": 5161,
      "lah": 5162,
      "spark": 5163,
      "ellen": 5164,
      "seek": 5165,
      "prev": 5166,
      "hee": 5167,
      "heel": 5168,
      "compet": 5169,
      "iales": 5170,
      "bean": 5171,
      "indec": 5172,
      "ectom": 5173,
      "intens": 5174,
      "acked": 5175,
      "oval": 5176,
      "oker": 5177,
      "match": 5178,
      "gler": 5179,
      "glish": 5180,
      "awa": 5181,
      "grac": 5182,
      "irect": 5183,
      "azine": 5184,
      "design": 5185,
      "etics": 5186,
      "knot": 5187,
      "galact": 5188,
      "elessly": 5189,
      "hypnot": 5190,
      "hydrogen": 5191,
      "faction": 5192,
      "claim": 5193,
      "necked": 5194,
      "John": 5195,
      "Corn": 5196,
      "DA": 5197,
      "Fl": 5198,
      "French": 5199,
      "IP": 5200,
      "Pur": 5201,
      "Ther": 5202,
      "bran": 5203,
      "base": 5204,
      "hind": 5205,
      "job": 5206,
      "kne": 5207,
      "page": 5208,
      "rations": 5209,
      "song": 5210,
      "ued": 5211,
      "inating": 5212,
      "anil": 5213,
      "unap": 5214,
      "unte": 5215,
      "unman": 5216,
      "unequ": 5217,
      "stuff": 5218,
      "chord": 5219,
      "user": 5220,
      "omeness": 5221,
      "ulatory": 5222,
      "acia": 5223,
      "acry": 5224,
      "accord": 5225,
      "abil": 5226,
      "abet": 5227,
      "amber": 5228,
      "americ": 5229,
      "imes": 5230,
      "impress": 5231,
      "aggress": 5232,
      "opsych": 5233,
      "izen": 5234,
      "perpet": 5235,
      "ipot": 5236,
      "cou": 5237,
      "exhib": 5238,
      "speck": 5239,
      "plane": 5240,
      "scy": 5241,
      "inda": 5242,
      "ective": 5243,
      "flesh": 5244,
      "upper": 5245,
      "acea": 5246,
      "moist": 5247,
      "colour": 5248,
      "And": 5249,
      "unts": 5250,
      "inker": 5251,
      "eyes": 5252,
      "legis": 5253,
      "regard": 5254,
      "transfer": 5255,
      "ridge": 5256,
      "accum": 5257,
      "charge": 5258,
      "crib": 5259,
      "alkal": 5260,
      "spirited": 5261,
      "cruc": 5262,
      "pointed": 5263,
      "condition": 5264,
      "sided": 5265,
      "oblastic": 5266,
      "Brah": 5267,
      "toler": 5268,
      "needle": 5269,
      "alcohol": 5270,
      "Ale": 5271,
      "Bre": 5272,
      "Cath": 5273,
      "Den": 5274,
      "Dav": 5275,
      "FR": 5276,
      "Gl": 5277,
      "Hor": 5278,
      "Lib": 5279,
      "ME": 5280,
      "Pen": 5281,
      "Sim": 5282,
      "Scot": 5283,
      "Wy": 5284,
      "dess": 5285,
      "dir": 5286,
      "eel": 5287,
      "east": 5288,
      "fs": 5289,
      "fell": 5290,
      "girl": 5291,
      "hul": 5292,
      "has": 5293,
      "peck": 5294,
      "rall": 5295,
      "zinc": 5296,
      "zym": 5297,
      "inas": 5298,
      "enf": 5299,
      "anus": 5300,
      "aten": 5301,
      "arrow": 5302,
      "left": 5303,
      "chole": 5304,
      "oler": 5305,
      "eton": 5306,
      "ulent": 5307,
      "emaker": 5308,
      "oso": 5309,
      "osome": 5310,
      "adjust": 5311,
      "imag": 5312,
      "opl": 5313,
      "odactyl": 5314,
      "qua": 5315,
      "loqu": 5316,
      "prom": 5317,
      "examin": 5318,
      "prem": 5319,
      "paraph": 5320,
      "ects": 5321,
      "monarch": 5322,
      "syst": 5323,
      "pear": 5324,
      "pollin": 5325,
      "etermin": 5326,
      "ferment": 5327,
      "Anth": 5328,
      "guer": 5329,
      "copper": 5330,
      "cheer": 5331,
      "righ": 5332,
      "axon": 5333,
      "palat": 5334,
      "canon": 5335,
      "eech": 5336,
      "Proto": 5337,
      "ready": 5338,
      "extens": 5339,
      "otechn": 5340,
      "hypoc": 5341,
      "imental": 5342,
      "otyp": 5343,
      "construct": 5344,
      "frequ": 5345,
      "shoul": 5346,
      "oderm": 5347,
      "ospore": 5348,
      "rhyth": 5349,
      "chamber": 5350,
      "producing": 5351,
      "Act": 5352,
      "DE": 5353,
      "Dur": 5354,
      "Fal": 5355,
      "Gab": 5356,
      "Lou": 5357,
      "MA": 5358,
      "Slav": 5359,
      "ein": 5360,
      "fist": 5361,
      "lest": 5362,
      "nect": 5363,
      "sow": 5364,
      "tas": 5365,
      "villa": 5366,
      "engra": 5367,
      "anap": 5368,
      "alty": 5369,
      "ares": 5370,
      "oro": 5371,
      "unit": 5372,
      "unob": 5373,
      "repe": 5374,
      "leuk": 5375,
      "elin": 5376,
      "sting": 5377,
      "etto": 5378,
      "phra": 5379,
      "ulin": 5380,
      "thous": 5381,
      "thumb": 5382,
      "emble": 5383,
      "amal": 5384,
      "admir": 5385,
      "util": 5386,
      "igation": 5387,
      "antist": 5388,
      "loph": 5389,
      "ande": 5390,
      "coach": 5391,
      "product": 5392,
      "spear": 5393,
      "season": 5394,
      "pregn": 5395,
      "hear": 5396,
      "asts": 5397,
      "scra": 5398,
      "scient": 5399,
      "parap": 5400,
      "ophone": 5401,
      "ophorous": 5402,
      "epis": 5403,
      "miser": 5404,
      "ween": 5405,
      "week": 5406,
      "peace": 5407,
      "lower": 5408,
      "matous": 5409,
      "ighting": 5410,
      "maint": 5411,
      "awk": 5412,
      "polit": 5413,
      "ungen": 5414,
      "anning": 5415,
      "german": 5416,
      "mening": 5417,
      "ouch": 5418,
      "legraph": 5419,
      "ochron": 5420,
      "anker": 5421,
      "panic": 5422,
      "valid": 5423,
      "silk": 5424,
      "distribut": 5425,
      "orthod": 5426,
      "driven": 5427,
      "boards": 5428,
      "ophilous": 5429,
      "fibro": 5430,
      "fortun": 5431,
      "street": 5432,
      "borough": 5433,
      "integr": 5434,
      "Jacob": 5435,
      "wrought": 5436,
      "Hart": 5437,
      "Lem": 5438,
      "Sum": 5439,
      "ains": 5440,
      "bim": 5441,
      "bust": 5442,
      "bach": 5443,
      "baw": 5444,
      "clay": 5445,
      "dun": 5446,
      "fab": 5447,
      "fare": 5448,
      "had": 5449,
      "name": 5450,
      "uary": 5451,
      "wright": 5452,
      "Ã¢": 5453,
      "Ã§": 5454,
      "edge": 5455,
      "argent": 5456,
      "isol": 5457,
      "unpar": 5458,
      "lepid": 5459,
      "stair": 5460,
      "chas": 5461,
      "usk": 5462,
      "abi": 5463,
      "aber": 5464,
      "ampl": 5465,
      "adapt": 5466,
      "rium": 5467,
      "agree": 5468,
      "iva": 5469,
      "andro": 5470,
      "laid": 5471,
      "exec": 5472,
      "span": 5473,
      "seal": 5474,
      "select": 5475,
      "undel": 5476,
      "obranch": 5477,
      "keep": 5478,
      "trin": 5479,
      "trid": 5480,
      "sci": 5481,
      "scand": 5482,
      "enda": 5483,
      "endor": 5484,
      "angs": 5485,
      "yls": 5486,
      "acker": 5487,
      "weet": 5488,
      "lows": 5489,
      "correspond": 5490,
      "ocked": 5491,
      "meat": 5492,
      "metro": 5493,
      "soap": 5494,
      "ularity": 5495,
      "fern": 5496,
      "ignor": 5497,
      "inny": 5498,
      "grind": 5499,
      "atten": 5500,
      "snap": 5501,
      "patch": 5502,
      "agnet": 5503,
      "particip": 5504,
      "struck": 5505,
      "osphere": 5506,
      "bellied": 5507,
      "cotton": 5508,
      "McC": 5509,
      "ophagous": 5510,
      "otropism": 5511,
      "itutional": 5512,
      "liquid": 5513,
      "material": 5514,
      "Az": 5515,
      "Aug": 5516,
      "CE": 5517,
      "Gr": 5518,
      "Lab": 5519,
      "Lim": 5520,
      "MP": 5521,
      "Mol": 5522,
      "NE": 5523,
      "Sph": 5524,
      "Sav": 5525,
      "Thor": 5526,
      "bio": 5527,
      "bapt": 5528,
      "cuss": 5529,
      "eer": 5530,
      "eating": 5531,
      "find": 5532,
      "frat": 5533,
      "gil": 5534,
      "hil": 5535,
      "iad": 5536,
      "iator": 5537,
      "pau": 5538,
      "plast": 5539,
      "punch": 5540,
      "rally": 5541,
      "sop": 5542,
      "saf": 5543,
      "tact": 5544,
      "onne": 5545,
      "arbor": 5546,
      "orc": 5547,
      "orical": 5548,
      "unsub": 5549,
      "rept": 5550,
      "stones": 5551,
      "usur": 5552,
      "omit": 5553,
      "etting": 5554,
      "aca": 5555,
      "acies": 5556,
      "abber": 5557,
      "thym": 5558,
      "utation": 5559,
      "ecal": 5560,
      "ersville": 5561,
      "antal": 5562,
      "anting": 5563,
      "antif": 5564,
      "coag": 5565,
      "deer": 5566,
      "lain": 5567,
      "undist": 5568,
      "keys": 5569,
      "plur": 5570,
      "scrat": 5571,
      "endo": 5572,
      "forec": 5573,
      "blank": 5574,
      "take": 5575,
      "tained": 5576,
      "monos": 5577,
      "lied": 5578,
      "weary": 5579,
      "selen": 5580,
      "lowing": 5581,
      "gland": 5582,
      "poor": 5583,
      "grain": 5584,
      "understand": 5585,
      "ropter": 5586,
      "poster": 5587,
      "duce": 5588,
      "ivenesses": 5589,
      "craw": 5590,
      "strap": 5591,
      "silic": 5592,
      "sheet": 5593,
      "Neo": 5594,
      "lipped": 5595,
      "liber": 5596,
      "igenous": 5597,
      "violet": 5598,
      "DC": 5599,
      "Gri": 5600,
      "Heter": 5601,
      "Lind": 5602,
      "Ori": 5603,
      "Stra": 5604,
      "To": 5605,
      "Ven": 5606,
      "dos": 5607,
      "frank": 5608,
      "gag": 5609,
      "jou": 5610,
      "kle": 5611,
      "lop": 5612,
      "mop": 5613,
      "mile": 5614,
      "mold": 5615,
      "nail": 5616,
      "null": 5617,
      "poc": 5618,
      "somat": 5619,
      "syllab": 5620,
      "wave": 5621,
      "woven": 5622,
      "yne": 5623,
      "escap": 5624,
      "anac": 5625,
      "atum": 5626,
      "alien": 5627,
      "arial": 5628,
      "isan": 5629,
      "icy": 5630,
      "unbe": 5631,
      "unsl": 5632,
      "uncont": 5633,
      "itative": 5634,
      "reason": 5635,
      "elian": 5636,
      "stan": 5637,
      "chast": 5638,
      "rak": 5639,
      "accommod": 5640,
      "uration": 5641,
      "asal": 5642,
      "aspir": 5643,
      "thon": 5644,
      "qui": 5645,
      "supr": 5646,
      "ifol": 5647,
      "ifiers": 5648,
      "prost": 5649,
      "spell": 5650,
      "prevent": 5651,
      "illon": 5652,
      "astro": 5653,
      "tres": 5654,
      "tril": 5655,
      "forward": 5656,
      "bloss": 5657,
      "paral": 5658,
      "acht": 5659,
      "ocking": 5660,
      "meal": 5661,
      "ledge": 5662,
      "archit": 5663,
      "cope": 5664,
      "autoc": 5665,
      "ateral": 5666,
      "ained": 5667,
      "pett": 5668,
      "ernal": 5669,
      "nerv": 5670,
      "resses": 5671,
      "squir": 5672,
      "consult": 5673,
      "heartedly": 5674,
      "stricken": 5675,
      "Leon": 5676,
      "course": 5677,
      "rously": 5678,
      "rific": 5679,
      "books": 5680,
      "iety": 5681,
      "rayed": 5682,
      "firm": 5683,
      "news": 5684,
      "ghost": 5685,
      "growing": 5686,
      "novel": 5687,
      "public": 5688,
      "birth": 5689,
      "hospit": 5690,
      "intellectual": 5691,
      "cylind": 5692,
      "abstract": 5693,
      "Cir": 5694,
      "Card": 5695,
      "Dal": 5696,
      "Dol": 5697,
      "Est": 5698,
      "Jul": 5699,
      "Od": 5700,
      "Pers": 5701,
      "Sp": 5702,
      "brig": 5703,
      "beck": 5704,
      "cence": 5705,
      "cret": 5706,
      "cott": 5707,
      "dull": 5708,
      "gement": 5709,
      "hut": 5710,
      "iably": 5711,
      "lance": 5712,
      "nel": 5713,
      "nud": 5714,
      "pag": 5715,
      "russ": 5716,
      "sphen": 5717,
      "tul": 5718,
      "torn": 5719,
      "wand": 5720,
      "attract": 5721,
      "alve": 5722,
      "orac": 5723,
      "reve": 5724,
      "stru": 5725,
      "chus": 5726,
      "chand": 5727,
      "chart": 5728,
      "eto": 5729,
      "abdom": 5730,
      "amn": 5731,
      "osin": 5732,
      "otin": 5733,
      "uten": 5734,
      "umat": 5735,
      "ogyn": 5736,
      "econom": 5737,
      "agre": 5738,
      "ods": 5739,
      "noninter": 5740,
      "verted": 5741,
      "conven": 5742,
      "proud": 5743,
      "dee": 5744,
      "format": 5745,
      "induct": 5746,
      "ectic": 5747,
      "ophyt": 5748,
      "epiph": 5749,
      "flash": 5750,
      "acknow": 5751,
      "rescent": 5752,
      "urel": 5753,
      "sooth": 5754,
      "ographies": 5755,
      "skir": 5756,
      "chee": 5757,
      "deser": 5758,
      "breaking": 5759,
      "ennial": 5760,
      "presum": 5761,
      "pseudos": 5762,
      "caul": 5763,
      "arms": 5764,
      "accus": 5765,
      "homoe": 5766,
      "consist": 5767,
      "hypn": 5768,
      "window": 5769,
      "treas": 5770,
      "engine": 5771,
      "amphib": 5772,
      "cuit": 5773,
      "quadri": 5774,
      "orrhaphy": 5775,
      "ogamy": 5776,
      "osaurus": 5777,
      "ocarpous": 5778,
      "plough": 5779,
      "Bul": 5780,
      "Dis": 5781,
      "Fair": 5782,
      "Good": 5783,
      "Hum": 5784,
      "Kat": 5785,
      "Pri": 5786,
      "Pap": 5787,
      "Paul": 5788,
      "Rod": 5789,
      "TR": 5790,
      "Tom": 5791,
      "dwell": 5792,
      "dumb": 5793,
      "fran": 5794,
      "kiss": 5795,
      "lamb": 5796,
      "mec": 5797,
      "mell": 5798,
      "male": 5799,
      "much": 5800,
      "note": 5801,
      "ufact": 5802,
      "zig": 5803,
      "enchy": 5804,
      "alm": 5805,
      "inging": 5806,
      "unar": 5807,
      "uncl": 5808,
      "uniform": 5809,
      "itating": 5810,
      "revers": 5811,
      "strid": 5812,
      "chat": 5813,
      "chev": 5814,
      "rait": 5815,
      "omel": 5816,
      "etter": 5817,
      "pharyng": 5818,
      "throm": 5819,
      "emig": 5820,
      "ematic": 5821,
      "osal": 5822,
      "apan": 5823,
      "apolog": 5824,
      "consol": 5825,
      "deprec": 5826,
      "ellip": 5827,
      "prÃ©": 5828,
      "overe": 5829,
      "scrut": 5830,
      "endent": 5831,
      "tea": 5832,
      "akers": 5833,
      "aval": 5834,
      "para": 5835,
      "ayan": 5836,
      "yled": 5837,
      "ylene": 5838,
      "flame": 5839,
      "mail": 5840,
      "solemn": 5841,
      "minim": 5842,
      "ographist": 5843,
      "whel": 5844,
      "baron": 5845,
      "Ant": 5846,
      "slender": 5847,
      "decor": 5848,
      "decom": 5849,
      "attle": 5850,
      "omycet": 5851,
      "ushing": 5852,
      "regist": 5853,
      "smart": 5854,
      "zeal": 5855,
      "bones": 5856,
      "urope": 5857,
      "complet": 5858,
      "jection": 5859,
      "ollen": 5860,
      "plicate": 5861,
      "music": 5862,
      "analy": 5863,
      "faith": 5864,
      "gnath": 5865,
      "concili": 5866,
      "special": 5867,
      "aryngeal": 5868,
      "honor": 5869,
      "false": 5870,
      "hypoth": 5871,
      "pneumat": 5872,
      "Christian": 5873,
      "opathic": 5874,
      "itudin": 5875,
      "cheeked": 5876,
      "Ath": 5877,
      "Ari": 5878,
      "Bow": 5879,
      "Bay": 5880,
      "Han": 5881,
      "Hay": 5882,
      "Ken": 5883,
      "Lar": 5884,
      "Law": 5885,
      "Mass": 5886,
      "Mich": 5887,
      "Nov": 5888,
      "PC": 5889,
      "Sin": 5890,
      "Sen": 5891,
      "dies": 5892,
      "hit": 5893,
      "hug": 5894,
      "iates": 5895,
      "jib": 5896,
      "kom": 5897,
      "lack": 5898,
      "lins": 5899,
      "moss": 5900,
      "moll": 5901,
      "nam": 5902,
      "nag": 5903,
      "nost": 5904,
      "pile": 5905,
      "puff": 5906,
      "rs": 5907,
      "rion": 5908,
      "sett": 5909,
      "sext": 5910,
      "uy": 5911,
      "vacc": 5912,
      "won": 5913,
      "yar": 5914,
      "you": 5915,
      "inos": 5916,
      "anian": 5917,
      "atm": 5918,
      "eded": 5919,
      "alise": 5920,
      "icist": 5921,
      "unqu": 5922,
      "unlo": 5923,
      "unres": 5924,
      "itors": 5925,
      "reven": 5926,
      "roma": 5927,
      "stomat": 5928,
      "chit": 5929,
      "champ": 5930,
      "ilib": 5931,
      "acin": 5932,
      "ention": 5933,
      "emed": 5934,
      "otte": 5935,
      "otically": 5936,
      "agle": 5937,
      "opard": 5938,
      "oda": 5939,
      "cone": 5940,
      "shri": 5941,
      "coma": 5942,
      "comed": 5943,
      "hypost": 5944,
      "blers": 5945,
      "blenn": 5946,
      "boom": 5947,
      "monopol": 5948,
      "tradition": 5949,
      "cyn": 5950,
      "interrog": 5951,
      "oves": 5952,
      "ustic": 5953,
      "worms": 5954,
      "system": 5955,
      "insol": 5956,
      "toed": 5957,
      "metry": 5958,
      "tyrann": 5959,
      "certain": 5960,
      "pleuro": 5961,
      "blephar": 5962,
      "desp": 5963,
      "attend": 5964,
      "curv": 5965,
      "malle": 5966,
      "breasted": 5967,
      "pyram": 5968,
      "vener": 5969,
      "enna": 5970,
      "trou": 5971,
      "lander": 5972,
      "romantic": 5973,
      "rophot": 5974,
      "crab": 5975,
      "refract": 5976,
      "strang": 5977,
      "musk": 5978,
      "occas": 5979,
      "treat": 5980,
      "odontidae": 5981,
      "quinqu": 5982,
      "Amph": 5983,
      "uddle": 5984,
      "drunk": 5985,
      "sensu": 5986,
      "ENT": 5987,
      "antimon": 5988,
      "Black": 5989,
      "fingered": 5990,
      "evolution": 5991,
      "individual": 5992,
      "Bat": 5993,
      "IA": 5994,
      "IF": 5995,
      "Kir": 5996,
      "Max": 5997,
      "North": 5998,
      "PO": 5999,
      "Rhod": 6000,
      "UT": 6001,
      "bang": 6002,
      "city": 6003,
      "cuck": 6004,
      "dand": 6005,
      "foc": 6006,
      "fted": 6007,
      "filled": 6008,
      "femin": 6009,
      "gover": 6010,
      "gier": 6011,
      "gamb": 6012,
      "gross": 6013,
      "his": 6014,
      "hund": 6015,
      "hart": 6016,
      "ji": 6017,
      "jub": 6018,
      "kol": 6019,
      "lia": 6020,
      "lug": 6021,
      "numer": 6022,
      "oic": 6023,
      "oir": 6024,
      "smen": 6025,
      "tog": 6026,
      "tier": 6027,
      "tile": 6028,
      "uce": 6029,
      "uating": 6030,
      "uvi": 6031,
      "wink": 6032,
      "whole": 6033,
      "yield": 6034,
      "aned": 6035,
      "itish": 6036,
      "itively": 6037,
      "ilate": 6038,
      "ulant": 6039,
      "urate": 6040,
      "asic": 6041,
      "abo": 6042,
      "thus": 6043,
      "otism": 6044,
      "agh": 6045,
      "ivism": 6046,
      "igo": 6047,
      "igate": 6048,
      "odynia": 6049,
      "antib": 6050,
      "irrig": 6051,
      "very": 6052,
      "peris": 6053,
      "concept": 6054,
      "shad": 6055,
      "cole": 6056,
      "protop": 6057,
      "program": 6058,
      "laugh": 6059,
      "spat": 6060,
      "uda": 6061,
      "illus": 6062,
      "pler": 6063,
      "pless": 6064,
      "alloc": 6065,
      "aeus": 6066,
      "ffer": 6067,
      "fork": 6068,
      "uced": 6069,
      "clock": 6070,
      "uba": 6071,
      "flam": 6072,
      "cyclo": 6073,
      "atorily": 6074,
      "rices": 6075,
      "moth": 6076,
      "oneph": 6077,
      "lett": 6078,
      "glott": 6079,
      "meth": 6080,
      "semib": 6081,
      "evangel": 6082,
      "grace": 6083,
      "annex": 6084,
      "skinned": 6085,
      "snuff": 6086,
      "breaker": 6087,
      "hydroph": 6088,
      "ochrom": 6089,
      "itional": 6090,
      "pursu": 6091,
      "unny": 6092,
      "hollow": 6093,
      "warrant": 6094,
      "group": 6095,
      "moder": 6096,
      "middle": 6097,
      "mitted": 6098,
      "omorphism": 6099,
      "griev": 6100,
      "brim": 6101,
      "phosphor": 6102,
      "advant": 6103,
      "riction": 6104,
      "iparous": 6105,
      "emphas": 6106,
      "oglyph": 6107,
      "'ll": 6108,
      "Af": 6109,
      "Barn": 6110,
      "Dev": 6111,
      "Ele": 6112,
      "Frank": 6113,
      "Ges": 6114,
      "Gro": 6115,
      "Jes": 6116,
      "Kn": 6117,
      "LA": 6118,
      "Myr": 6119,
      "Not": 6120,
      "Pic": 6121,
      "Pent": 6122,
      "Pas": 6123,
      "RS": 6124,
      "Sus": 6125,
      "Sem": 6126,
      "Sand": 6127,
      "Sub": 6128,
      "Span": 6129,
      "TO": 6130,
      "Tet": 6131,
      "bail": 6132,
      "crat": 6133,
      "cane": 6134,
      "cris": 6135,
      "fas": 6136,
      "giving": 6137,
      "iative": 6138,
      "jan": 6139,
      "lid": 6140,
      "lut": 6141,
      "lumin": 6142,
      "mish": 6143,
      "wast": 6144,
      "zi": 6145,
      "ÃŃ": 6146,
      "editor": 6147,
      "alis": 6148,
      "alian": 6149,
      "arine": 6150,
      "icer": 6151,
      "unpl": 6152,
      "unrep": 6153,
      "recom": 6154,
      "leth": 6155,
      "usia": 6156,
      "ilder": 6157,
      "etz": 6158,
      "abe": 6159,
      "threat": 6160,
      "ados": 6161,
      "iste": 6162,
      "isters": 6163,
      "imin": 6164,
      "opal": 6165,
      "opper": 6166,
      "apped": 6167,
      "quill": 6168,
      "nondef": 6169,
      "pert": 6170,
      "perip": 6171,
      "concer": 6172,
      "concent": 6173,
      "conform": 6174,
      "shap": 6175,
      "proportion": 6176,
      "depart": 6177,
      "pror": 6178,
      "owing": 6179,
      "scatter": 6180,
      "aki": 6181,
      "aky": 6182,
      "avers": 6183,
      "ptive": 6184,
      "beh": 6185,
      "blu": 6186,
      "ucer": 6187,
      "inton": 6188,
      "athemat": 6189,
      "asser": 6190,
      "asses": 6191,
      "epip": 6192,
      "flies": 6193,
      "orted": 6194,
      "atories": 6195,
      "rese": 6196,
      "wee": 6197,
      "toe": 6198,
      "metrical": 6199,
      "event": 6200,
      "evapor": 6201,
      "rowed": 6202,
      "ultural": 6203,
      "whir": 6204,
      "mercur": 6205,
      "lingu": 6206,
      "featured": 6207,
      "uncle": 6208,
      "hydra": 6209,
      "goat": 6210,
      "palm": 6211,
      "erythro": 6212,
      "pseudoc": 6213,
      "roller": 6214,
      "wardly": 6215,
      "synth": 6216,
      "synchron": 6217,
      "predic": 6218,
      "strait": 6219,
      "piec": 6220,
      "delic": 6221,
      "elev": 6222,
      "scription": 6223,
      "ERS": 6224,
      "mindedly": 6225,
      "devot": 6226,
      "linear": 6227,
      "fault": 6228,
      "factor": 6229,
      "optic": 6230,
      "iosity": 6231,
      "pigeon": 6232,
      "horned": 6233,
      "jury": 6234,
      "hued": 6235,
      "vulgar": 6236,
      "rooms": 6237,
      "toxic": 6238,
      "ribbed": 6239,
      "cultiv": 6240,
      "juven": 6241,
      "gentleman": 6242,
      "roofed": 6243,
      "industri": 6244,
      "Av": 6245,
      "Ach": 6246,
      "Bart": 6247,
      "Eth": 6248,
      "Gi": 6249,
      "Hon": 6250,
      "Low": 6251,
      "Laur": 6252,
      "Mess": 6253,
      "Pom": 6254,
      "Pres": 6255,
      "Que": 6256,
      "Rad": 6257,
      "Ray": 6258,
      "Saint": 6259,
      "Thom": 6260,
      "aec": 6261,
      "aub": 6262,
      "canth": 6263,
      "cren": 6264,
      "fiss": 6265,
      "fright": 6266,
      "gie": 6267,
      "gau": 6268,
      "lur": 6269,
      "lud": 6270,
      "lign": 6271,
      "lamin": 6272,
      "noth": 6273,
      "ride": 6274,
      "slav": 6275,
      "sider": 6276,
      "siphon": 6277,
      "tinted": 6278,
      "vend": 6279,
      "wher": 6280,
      "xx": 6281,
      "inoc": 6282,
      "inde": 6283,
      "enal": 6284,
      "anem": 6285,
      "anchor": 6286,
      "alumin": 6287,
      "arism": 6288,
      "icles": 6289,
      "orism": 6290,
      "orously": 6291,
      "uni": 6292,
      "unself": 6293,
      "elon": 6294,
      "chia": 6295,
      "chest": 6296,
      "oled": 6297,
      "iden": 6298,
      "phone": 6299,
      "ulously": 6300,
      "entral": 6301,
      "otri": 6302,
      "nonim": 6303,
      "nonsub": 6304,
      "shallow": 6305,
      "ipped": 6306,
      "deaf": 6307,
      "exter": 6308,
      "exual": 6309,
      "extern": 6310,
      "search": 6311,
      "preen": 6312,
      "preex": 6313,
      "heit": 6314,
      "hymen": 6315,
      "aston": 6316,
      "plumb": 6317,
      "scab": 6318,
      "sciss": 6319,
      "anga": 6320,
      "beet": 6321,
      "parent": 6322,
      "ophob": 6323,
      "cliff": 6324,
      "subter": 6325,
      "ubb": 6326,
      "episcop": 6327,
      "ensive": 6328,
      "uple": 6329,
      "icked": 6330,
      "icking": 6331,
      "tach": 6332,
      "inters": 6333,
      "tough": 6334,
      "core": 6335,
      "herb": 6336,
      "ropic": 6337,
      "ornament": 6338,
      "decol": 6339,
      "brother": 6340,
      "affir": 6341,
      "presby": 6342,
      "ousnesses": 6343,
      "multi": 6344,
      "circul": 6345,
      "fluid": 6346,
      "join": 6347,
      "jointed": 6348,
      "flowing": 6349,
      "safe": 6350,
      "film": 6351,
      "grip": 6352,
      "analog": 6353,
      "spectro": 6354,
      "glycer": 6355,
      "rology": 6356,
      "climat": 6357,
      "bottom": 6358,
      "Turk": 6359,
      "likeness": 6360,
      "memor": 6361,
      "measure": 6362,
      "thirty": 6363,
      "manifest": 6364,
      "authent": 6365,
      "Adam": 6366,
      "BE": 6367,
      "Bell": 6368,
      "Bour": 6369,
      "CM": 6370,
      "Dy": 6371,
      "Dra": 6372,
      "Hard": 6373,
      "How": 6374,
      "Mach": 6375,
      "Mary": 6376,
      "Nic": 6377,
      "Pter": 6378,
      "Shar": 6379,
      "cn": 6380,
      "crin": 6381,
      "eul": 6382,
      "fem": 6383,
      "file": 6384,
      "het": 6385,
      "kines": 6386,
      "lil": 6387,
      "luck": 6388,
      "lute": 6389,
      "mens": 6390,
      "oke": 6391,
      "oise": 6392,
      "pated": 6393,
      "pub": 6394,
      "uity": 6395,
      "viz": 6396,
      "vall": 6397,
      "wyn": 6398,
      "zie": 6399,
      "alising": 6400,
      "arach": 6401,
      "isy": 6402,
      "iti": 6403,
      "itus": 6404,
      "remon": 6405,
      "starch": 6406,
      "chon": 6407,
      "chic": 6408,
      "usively": 6409,
      "omous": 6410,
      "omast": 6411,
      "etes": 6412,
      "idered": 6413,
      "ulo": 6414,
      "acular": 6415,
      "accompl": 6416,
      "uri": 6417,
      "aband": 6418,
      "emas": 6419,
      "embl": 6420,
      "emaking": 6421,
      "adip": 6422,
      "ouses": 6423,
      "isting": 6424,
      "ecret": 6425,
      "appl": 6426,
      "appet": 6427,
      "apprehens": 6428,
      "quot": 6429,
      "antagon": 6430,
      "shy": 6431,
      "deuter": 6432,
      "spr": 6433,
      "spic": 6434,
      "compos": 6435,
      "hypot": 6436,
      "keeping": 6437,
      "nebul": 6438,
      "prise": 6439,
      "alls": 6440,
      "overt": 6441,
      "scen": 6442,
      "scro": 6443,
      "endoc": 6444,
      "tein": 6445,
      "forc": 6446,
      "dispar": 6447,
      "bead": 6448,
      "beard": 6449,
      "bou": 6450,
      "boats": 6451,
      "clusion": 6452,
      "ylon": 6453,
      "yless": 6454,
      "monoc": 6455,
      "geon": 6456,
      "intern": 6457,
      "liament": 6458,
      "resur": 6459,
      "oky": 6460,
      "bery": 6461,
      "peach": 6462,
      "rics": 6463,
      "mourn": 6464,
      "glomer": 6465,
      "metap": 6466,
      "soon": 6467,
      "barrel": 6468,
      "marble": 6469,
      "market": 6470,
      "triv": 6471,
      "brag": 6472,
      "orning": 6473,
      "deck": 6474,
      "legitim": 6475,
      "solic": 6476,
      "dramat": 6477,
      "transl": 6478,
      "Ã¤t": 6479,
      "purg": 6480,
      "republ": 6481,
      "potent": 6482,
      "antiqu": 6483,
      "confess": 6484,
      "flux": 6485,
      "weeds": 6486,
      "tempt": 6487,
      "liberal": 6488,
      "physic": 6489,
      "opoda": 6490,
      "beggar": 6491,
      "friend": 6492,
      "closed": 6493,
      "oplasm": 6494,
      "country": 6495,
      "dodec": 6496,
      "ĠĠĠĠĠĠĠĠĠĠĠĠĠĠĠĠ": 6497,
      "revolution": 6498,
      "oscill": 6499,
      "neutral": 6500,
      "crested": 6501,
      "Aut": 6502,
      "Ass": 6503,
      "Blo": 6504,
      "Cel": 6505,
      "Crypt": 6506,
      "Fe": 6507,
      "Fab": 6508,
      "GE": 6509,
      "Haw": 6510,
      "Lang": 6511,
      "Na": 6512,
      "PH": 6513,
      "bism": 6514,
      "bite": 6515,
      "bait": 6516,
      "dib": 6517,
      "daw": 6518,
      "dread": 6519,
      "eal": 6520,
      "euc": 6521,
      "fath": 6522,
      "fals": 6523,
      "gian": 6524,
      "ku": 6525,
      "mend": 6526,
      "might": 6527,
      "pia": 6528,
      "pate": 6529,
      "paw": 6530,
      "sack": 6531,
      "tunn": 6532,
      "Ã®": 6533,
      "anas": 6534,
      "arrang": 6535,
      "leagu": 6536,
      "elastic": 6537,
      "stout": 6538,
      "stool": 6539,
      "usc": 6540,
      "etch": 6541,
      "enting": 6542,
      "emy": 6543,
      "adam": 6544,
      "uta": 6545,
      "ripe": 6546,
      "ogg": 6547,
      "ogs": 6548,
      "agra": 6549,
      "iven": 6550,
      "igated": 6551,
      "odal": 6552,
      "periph": 6553,
      "period": 6554,
      "confer": 6555,
      "defer": 6556,
      "splan": 6557,
      "prere": 6558,
      "trench": 6559,
      "ffic": 6560,
      "fored": 6561,
      "avel": 6562,
      "rys": 6563,
      "boys": 6564,
      "ophora": 6565,
      "cled": 6566,
      "intox": 6567,
      "tains": 6568,
      "achie": 6569,
      "worse": 6570,
      "ronic": 6571,
      "lety": 6572,
      "glig": 6573,
      "carpet": 6574,
      "minister": 6575,
      "toned": 6576,
      "Cham": 6577,
      "lection": 6578,
      "serpent": 6579,
      "ceremon": 6580,
      "anthus": 6581,
      "atting": 6582,
      "center": 6583,
      "ochlor": 6584,
      "trom": 6585,
      "hemi": 6586,
      "Arist": 6587,
      "offs": 6588,
      "rolling": 6589,
      "version": 6590,
      "ussed": 6591,
      "deliber": 6592,
      "transport": 6593,
      "anticip": 6594,
      "occip": 6595,
      "ozon": 6596,
      "help": 6597,
      "liver": 6598,
      "ophilic": 6599,
      "udding": 6600,
      "empir": 6601,
      "splend": 6602,
      "flagell": 6603,
      "clothes": 6604,
      "Palae": 6605,
      "familiar": 6606,
      "Teut": 6607,
      "function": 6608,
      "control": 6609,
      "otoxin": 6610,
      "celebr": 6611,
      "Bry": 6612,
      "CR": 6613,
      "Ep": 6614,
      "GH": 6615,
      "Gib": 6616,
      "Hur": 6617,
      "Len": 6618,
      "MO": 6619,
      "Res": 6620,
      "Sor": 6621,
      "Sha": 6622,
      "Um": 6623,
      "aic": 6624,
      "bom": 6625,
      "bend": 6626,
      "bane": 6627,
      "beth": 6628,
      "camph": 6629,
      "ders": 6630,
      "eus": 6631,
      "fang": 6632,
      "gown": 6633,
      "goss": 6634,
      "hing": 6635,
      "lant": 6636,
      "lard": 6637,
      "noc": 6638,
      "noct": 6639,
      "nymph": 6640,
      "pug": 6641,
      "sized": 6642,
      "tann": 6643,
      "vast": 6644,
      "wain": 6645,
      "wreck": 6646,
      "inia": 6647,
      "anon": 6648,
      "alla": 6649,
      "isch": 6650,
      "orange": 6651,
      "itiously": 6652,
      "rout": 6653,
      "sted": 6654,
      "stay": 6655,
      "chick": 6656,
      "chanc": 6657,
      "charm": 6658,
      "rast": 6659,
      "omical": 6660,
      "omphal": 6661,
      "etted": 6662,
      "acar": 6663,
      "account": 6664,
      "abel": 6665,
      "oto": 6666,
      "rimin": 6667,
      "riform": 6668,
      "opisth": 6669,
      "ocular": 6670,
      "iza": 6671,
      "antil": 6672,
      "shev": 6673,
      "exhaust": 6674,
      "ellers": 6675,
      "hyps": 6676,
      "obacter": 6677,
      "neo": 6678,
      "dispens": 6679,
      "discrimin": 6680,
      "ostat": 6681,
      "clesia": 6682,
      "intend": 6683,
      "assim": 6684,
      "outw": 6685,
      "trade": 6686,
      "oks": 6687,
      "peop": 6688,
      "hoop": 6689,
      "redis": 6690,
      "colum": 6691,
      "undert": 6692,
      "germin": 6693,
      "brady": 6694,
      "autos": 6695,
      "rigged": 6696,
      "axes": 6697,
      "dough": 6698,
      "swan": 6699,
      "enny": 6700,
      "ushed": 6701,
      "troch": 6702,
      "porter": 6703,
      "regret": 6704,
      "etti": 6705,
      "surf": 6706,
      "consec": 6707,
      "particular": 6708,
      "iousnesses": 6709,
      "topped": 6710,
      "cutter": 6711,
      "pulver": 6712,
      "thyro": 6713,
      "scrib": 6714,
      "tempest": 6715,
      "iacal": 6716,
      "phenomen": 6717,
      "rify": 6718,
      "opsis": 6719,
      "extract": 6720,
      "AND": 6721,
      "service": 6722,
      "chloro": 6723,
      "rabbit": 6724,
      "standard": 6725,
      "dimin": 6726,
      "rooted": 6727,
      "connect": 6728,
      "Georg": 6729,
      "spiritual": 6730,
      "appear": 6731,
      "catech": 6732,
      "ozoic": 6733,
      "husband": 6734,
      "building": 6735,
      "persuas": 6736,
      "bishop": 6737,
      "Bla": 6738,
      "Buck": 6739,
      "Cent": 6740,
      "Cla": 6741,
      "Goth": 6742,
      "HO": 6743,
      "Isl": 6744,
      "Ka": 6745,
      "Maur": 6746,
      "Ni": 6747,
      "Os": 6748,
      "Oph": 6749,
      "Phar": 6750,
      "Semi": 6751,
      "Var": 6752,
      "bard": 6753,
      "cort": 6754,
      "cili": 6755,
      "dign": 6756,
      "doll": 6757,
      "gene": 6758,
      "kon": 6759,
      "kas": 6760,
      "moment": 6761,
      "nia": 6762,
      "nour": 6763,
      "nik": 6764,
      "oat": 6765,
      "sis": 6766,
      "sore": 6767,
      "tower": 6768,
      "vinc": 6769,
      "wur": 6770,
      "winn": 6771,
      "zan": 6772,
      "invit": 6773,
      "inspect": 6774,
      "esper": 6775,
      "enia": 6776,
      "unconf": 6777,
      "itary": 6778,
      "reform": 6779,
      "rejo": 6780,
      "elder": 6781,
      "states": 6782,
      "chaff": 6783,
      "raven": 6784,
      "olum": 6785,
      "olys": 6786,
      "omus": 6787,
      "omely": 6788,
      "essa": 6789,
      "ulas": 6790,
      "ulary": 6791,
      "advis": 6792,
      "otal": 6793,
      "utt": 6794,
      "oga": 6795,
      "opaed": 6796,
      "applic": 6797,
      "antig": 6798,
      "conjug": 6799,
      "concert": 6800,
      "estic": 6801,
      "shield": 6802,
      "shoe": 6803,
      "ipping": 6804,
      "andra": 6805,
      "expos": 6806,
      "speech": 6807,
      "ibles": 6808,
      "keen": 6809,
      "teas": 6810,
      "bearded": 6811,
      "aye": 6812,
      "ophyl": 6813,
      "ophytic": 6814,
      "assign": 6815,
      "tachy": 6816,
      "mons": 6817,
      "fulnesses": 6818,
      "lix": 6819,
      "oka": 6820,
      "bere": 6821,
      "peac": 6822,
      "urely": 6823,
      "mount": 6824,
      "poon": 6825,
      "metamorph": 6826,
      "rue": 6827,
      "collar": 6828,
      "foil": 6829,
      "retin": 6830,
      "tedness": 6831,
      "marg": 6832,
      "myri": 6833,
      "unsur": 6834,
      "istics": 6835,
      "regular": 6836,
      "handedness": 6837,
      "dragon": 6838,
      "Ã¤Ã¤": 6839,
      "butt": 6840,
      "multif": 6841,
      "bench": 6842,
      "immort": 6843,
      "instrum": 6844,
      "expand": 6845,
      "basket": 6846,
      "iments": 6847,
      "balls": 6848,
      "better": 6849,
      "locks": 6850,
      "boxes": 6851,
      "fallen": 6852,
      "ocephalous": 6853,
      "mouse": 6854,
      "writing": 6855,
      "olithic": 6856,
      "journal": 6857,
      "breathing": 6858,
      "browed": 6859,
      "benefic": 6860,
      "opinion": 6861,
      "pepper": 6862,
      "tympan": 6863,
      "hundred": 6864,
      "Ay": 6865,
      "Aud": 6866,
      "CA": 6867,
      "Ce": 6868,
      "DO": 6869,
      "Es": 6870,
      "Fra": 6871,
      "Gor": 6872,
      "Gran": 6873,
      "Hom": 6874,
      "High": 6875,
      "Mul": 6876,
      "Ped": 6877,
      "Por": 6878,
      "Rus": 6879,
      "Spr": 6880,
      "Syn": 6881,
      "Wol": 6882,
      "cia": 6883,
      "fris": 6884,
      "hub": 6885,
      "iability": 6886,
      "iological": 6887,
      "jing": 6888,
      "lament": 6889,
      "mild": 6890,
      "oer": 6891,
      "oak": 6892,
      "pable": 6893,
      "pump": 6894,
      "syll": 6895,
      "tess": 6896,
      "tank": 6897,
      "xim": 6898,
      "youth": 6899,
      "inist": 6900,
      "inely": 6901,
      "indef": 6902,
      "anist": 6903,
      "anize": 6904,
      "atine": 6905,
      "atry": 6906,
      "arra": 6907,
      "isen": 6908,
      "icidal": 6909,
      "orious": 6910,
      "orium": 6911,
      "unal": 6912,
      "iton": 6913,
      "itably": 6914,
      "reco": 6915,
      "revel": 6916,
      "record": 6917,
      "lea": 6918,
      "chyl": 6919,
      "ilated": 6920,
      "olis": 6921,
      "phleg": 6922,
      "ultr": 6923,
      "acs": 6924,
      "thre": 6925,
      "thur": 6926,
      "amaz": 6927,
      "osities": 6928,
      "adren": 6929,
      "adelph": 6930,
      "imped": 6931,
      "opa": 6932,
      "igar": 6933,
      "quam": 6934,
      "consul": 6935,
      "estone": 6936,
      "iffl": 6937,
      "project": 6938,
      "iang": 6939,
      "hears": 6940,
      "commerc": 6941,
      "astically": 6942,
      "plug": 6943,
      "neglig": 6944,
      "manufact": 6945,
      "forty": 6946,
      "ieu": 6947,
      "dispers": 6948,
      "dissol": 6949,
      "indle": 6950,
      "inty": 6951,
      "acking": 6952,
      "mono": 6953,
      "syphil": 6954,
      "okin": 6955,
      "pept": 6956,
      "people": 6957,
      "insist": 6958,
      "acean": 6959,
      "lowed": 6960,
      "herd": 6961,
      "ruf": 6962,
      "derm": 6963,
      "ahl": 6964,
      "ferro": 6965,
      "burden": 6966,
      "declar": 6967,
      "cheap": 6968,
      "descri": 6969,
      "curr": 6970,
      "switch": 6971,
      "trol": 6972,
      "duplic": 6973,
      "iformes": 6974,
      "volat": 6975,
      "infinit": 6976,
      "prag": 6977,
      "rums": 6978,
      "visaged": 6979,
      "acceler": 6980,
      "pense": 6981,
      "atures": 6982,
      "limbed": 6983,
      "length": 6984,
      "amino": 6985,
      "otherapeut": 6986,
      "Const": 6987,
      "layer": 6988,
      "damn": 6989,
      "days": 6990,
      "opodous": 6991,
      "opteryg": 6992,
      "social": 6993,
      "ophyllous": 6994,
      "sounding": 6995,
      "icolous": 6996,
      "stomach": 6997,
      "ocentric": 6998,
      "custom": 6999,
      "sculpt": 7000,
      "acknowled": 7001,
      "Ah": 7002,
      "Adel": 7003,
      "CT": 7004,
      "FF": 7005,
      "Gy": 7006,
      "Had": 7007,
      "IE": 7008,
      "Jew": 7009,
      "Oc": 7010,
      "PE": 7011,
      "Pier": 7012,
      "Phyl": 7013,
      "Ru": 7014,
      "ael": 7015,
      "bund": 7016,
      "cater": 7017,
      "deli": 7018,
      "gic": 7019,
      "gom": 7020,
      "gid": 7021,
      "gingly": 7022,
      "kam": 7023,
      "kenn": 7024,
      "leness": 7025,
      "membran": 7026,
      "number": 7027,
      "pane": 7028,
      "satur": 7029,
      "tine": 7030,
      "tars": 7031,
      "wol": 7032,
      "wish": 7033,
      "wrist": 7034,
      "yed": 7035,
      "yak": 7036,
      "erman": 7037,
      "inen": 7038,
      "inable": 7039,
      "inoid": 7040,
      "esi": 7041,
      "alite": 7042,
      "isis": 7043,
      "ischi": 7044,
      "unrel": 7045,
      "itant": 7046,
      "reper": 7047,
      "roth": 7048,
      "stum": 7049,
      "stage": 7050,
      "store": 7051,
      "chalk": 7052,
      "thank": 7053,
      "third": 7054,
      "emn": 7055,
      "adder": 7056,
      "advers": 7057,
      "iman": 7058,
      "agers": 7059,
      "oppress": 7060,
      "octa": 7061,
      "odle": 7062,
      "apter": 7063,
      "vermin": 7064,
      "lost": 7065,
      "condem": 7066,
      "sha": 7067,
      "shrew": 7068,
      "coid": 7069,
      "except": 7070,
      "exerc": 7071,
      "ianize": 7072,
      "undo": 7073,
      "combin": 7074,
      "illar": 7075,
      "truck": 7076,
      "ieux": 7077,
      "ugal": 7078,
      "beef": 7079,
      "ostra": 7080,
      "inting": 7081,
      "intent": 7082,
      "assa": 7083,
      "orts": 7084,
      "interfer": 7085,
      "rane": 7086,
      "acts": 7087,
      "corro": 7088,
      "mates": 7089,
      "diap": 7090,
      "diagn": 7091,
      "ratic": 7092,
      "oxin": 7093,
      "oxide": 7094,
      "Angl": 7095,
      "trium": 7096,
      "trigon": 7097,
      "guid": 7098,
      "ilely": 7099,
      "archic": 7100,
      "calam": 7101,
      "grum": 7102,
      "axy": 7103,
      "encing": 7104,
      "schol": 7105,
      "theast": 7106,
      "harsh": 7107,
      "ventric": 7108,
      "knock": 7109,
      "knife": 7110,
      "praise": 7111,
      "rhod": 7112,
      "bye": 7113,
      "viscer": 7114,
      "addy": 7115,
      "multic": 7116,
      "horiz": 7117,
      "Indo": 7118,
      "cream": 7119,
      "zzled": 7120,
      "explo": 7121,
      "lighted": 7122,
      "torment": 7123,
      "virtu": 7124,
      "planet": 7125,
      "aggreg": 7126,
      "speaking": 7127,
      "every": 7128,
      "sperm": 7129,
      "baby": 7130,
      "blown": 7131,
      "substanti": 7132,
      "imetry": 7133,
      "negot": 7134,
      "agogue": 7135,
      "gynec": 7136,
      "chondro": 7137,
      "Franco": 7138,
      "sublim": 7139,
      "stained": 7140,
      "tempered": 7141,
      "maiden": 7142,
      "luxur": 7143,
      "parallel": 7144,
      "oglobin": 7145,
      "prompt": 7146,
      "Brown": 7147,
      "Clo": 7148,
      "Cour": 7149,
      "Hil": 7150,
      "Hall": 7151,
      "IV": 7152,
      "Les": 7153,
      "MM": 7154,
      "Nar": 7155,
      "Pod": 7156,
      "RA": 7157,
      "Rub": 7158,
      "Rock": 7159,
      "Sid": 7160,
      "Tart": 7161,
      "aan": 7162,
      "bak": 7163,
      "bals": 7164,
      "cure": 7165,
      "claw": 7166,
      "dart": 7167,
      "dling": 7168,
      "dled": 7169,
      "dler": 7170,
      "dacry": 7171,
      "eup": 7172,
      "fust": 7173,
      "frig": 7174,
      "fren": 7175,
      "fancy": 7176,
      "giest": 7177,
      "hide": 7178,
      "ilet": 7179,
      "jail": 7180,
      "kt": 7181,
      "kor": 7182,
      "kib": 7183,
      "kok": 7184,
      "lott": 7185,
      "laps": 7186,
      "oan": 7187,
      "oul": 7188,
      "pous": 7189,
      "pins": 7190,
      "penc": 7191,
      "saddle": 7192,
      "vale": 7193,
      "wn": 7194,
      "wir": 7195,
      "inform": 7196,
      "onically": 7197,
      "enary": 7198,
      "edom": 7199,
      "iciency": 7200,
      "orousness": 7201,
      "uned": 7202,
      "unav": 7203,
      "itu": 7204,
      "elf": 7205,
      "stol": 7206,
      "usa": 7207,
      "rament": 7208,
      "oling": 7209,
      "olitic": 7210,
      "abas": 7211,
      "thio": 7212,
      "osse": 7213,
      "otten": 7214,
      "otrophic": 7215,
      "rik": 7216,
      "rimon": 7217,
      "eced": 7218,
      "imperson": 7219,
      "opes": 7220,
      "apping": 7221,
      "noncont": 7222,
      "pery": 7223,
      "contribut": 7224,
      "esty": 7225,
      "shro": 7226,
      "shear": 7227,
      "shadow": 7228,
      "iano": 7229,
      "coming": 7230,
      "uder": 7231,
      "scale": 7232,
      "iew": 7233,
      "beer": 7234,
      "intest": 7235,
      "flatter": 7236,
      "achromat": 7237,
      "haunted": 7238,
      "actor": 7239,
      "sement": 7240,
      "sof": 7241,
      "polym": 7242,
      "veined": 7243,
      "barred": 7244,
      "march": 7245,
      "cereb": 7246,
      "igns": 7247,
      "ongs": 7248,
      "anthe": 7249,
      "current": 7250,
      "hydros": 7251,
      "pyr": 7252,
      "psis": 7253,
      "infect": 7254,
      "caud": 7255,
      "known": 7256,
      "catal": 7257,
      "accident": 7258,
      "uffle": 7259,
      "penit": 7260,
      "paed": 7261,
      "distinct": 7262,
      "divis": 7263,
      "precipit": 7264,
      "hoods": 7265,
      "protest": 7266,
      "entertain": 7267,
      "omorphous": 7268,
      "otypic": 7269,
      "frame": 7270,
      "rified": 7271,
      "popular": 7272,
      "provinc": 7273,
      "hedge": 7274,
      "doubt": 7275,
      "floor": 7276,
      "ophagy": 7277,
      "gelatin": 7278,
      "succin": 7279,
      "speak": 7280,
      "pension": 7281,
      "burning": 7282,
      "White": 7283,
      "ocephalic": 7284,
      "imetric": 7285,
      "neglect": 7286,
      "natured": 7287,
      "noble": 7288,
      "itudes": 7289,
      "bacteri": 7290,
      "powder": 7291,
      "mountain": 7292,
      "diamond": 7293,
      "legisl": 7294,
      "systemat": 7295,
      "splanchn": 7296,
      "AA": 7297,
      "BO": 7298,
      "Ban": 7299,
      "Bet": 7300,
      "Bac": 7301,
      "Bos": 7302,
      "Bir": 7303,
      "Burn": 7304,
      "Brad": 7305,
      "Cow": 7306,
      "Din": 7307,
      "Dic": 7308,
      "Eu": 7309,
      "Gym": 7310,
      "Hip": 7311,
      "Hind": 7312,
      "IO": 7313,
      "Ju": 7314,
      "Jack": 7315,
      "Kor": 7316,
      "Kur": 7317,
      "Kam": 7318,
      "MAR": 7319,
      "Op": 7320,
      "Pot": 7321,
      "Penn": 7322,
      "Rem": 7323,
      "cush": 7324,
      "dab": 7325,
      "echo": 7326,
      "fag": 7327,
      "fruct": 7328,
      "hm": 7329,
      "nis": 7330,
      "nell": 7331,
      "toll": 7332,
      "wist": 7333,
      "wagon": 7334,
      "yon": 7335,
      "yaw": 7336,
      "onge": 7337,
      "escal": 7338,
      "esome": 7339,
      "esophag": 7340,
      "enam": 7341,
      "enoid": 7342,
      "enosis": 7343,
      "envir": 7344,
      "attain": 7345,
      "attribut": 7346,
      "alic": 7347,
      "alder": 7348,
      "arize": 7349,
      "isot": 7350,
      "isop": 7351,
      "isement": 7352,
      "orator": 7353,
      "untrans": 7354,
      "ithe": 7355,
      "recept": 7356,
      "role": 7357,
      "roch": 7358,
      "chau": 7359,
      "usiveness": 7360,
      "rasp": 7361,
      "rake": 7362,
      "etalous": 7363,
      "pha": 7364,
      "uliform": 7365,
      "ameter": 7366,
      "utely": 7367,
      "ecclesia": 7368,
      "imic": 7369,
      "improv": 7370,
      "imagin": 7371,
      "ivoc": 7372,
      "ocial": 7373,
      "apo": 7374,
      "anta": 7375,
      "antism": 7376,
      "antry": 7377,
      "pere": 7378,
      "pered": 7379,
      "perine": 7380,
      "shin": 7381,
      "progress": 7382,
      "depress": 7383,
      "spider": 7384,
      "ianth": 7385,
      "unda": 7386,
      "illas": 7387,
      "neys": 7388,
      "trunk": 7389,
      "scrap": 7390,
      "beak": 7391,
      "indict": 7392,
      "ophoric": 7393,
      "atha": 7394,
      "aths": 7395,
      "epil": 7396,
      "enses": 7397,
      "ortion": 7398,
      "interpret": 7399,
      "ova": 7400,
      "achron": 7401,
      "weap": 7402,
      "carry": 7403,
      "colleg": 7404,
      "mini": 7405,
      "mineral": 7406,
      "veh": 7407,
      "whirl": 7408,
      "ularia": 7409,
      "othec": 7410,
      "ahu": 7411,
      "marks": 7412,
      "anny": 7413,
      "feathered": 7414,
      "trig": 7415,
      "guan": 7416,
      "microp": 7417,
      "slack": 7418,
      "slide": 7419,
      "decar": 7420,
      "ofib": 7421,
      "poses": 7422,
      "incident": 7423,
      "ikin": 7424,
      "aneously": 7425,
      "grub": 7426,
      "tingu": 7427,
      "lery": 7428,
      "hydrate": 7429,
      "ission": 7430,
      "iole": 7431,
      "tured": 7432,
      "zoic": 7433,
      "draught": 7434,
      "Ã¤Ã¤n": 7435,
      "purch": 7436,
      "salping": 7437,
      "adequ": 7438,
      "belt": 7439,
      "address": 7440,
      "paid": 7441,
      "encycl": 7442,
      "grey": 7443,
      "icula": 7444,
      "distingu": 7445,
      "protect": 7446,
      "bloom": 7447,
      "vault": 7448,
      "invig": 7449,
      "optosis": 7450,
      "shoot": 7451,
      "blooded": 7452,
      "signific": 7453,
      "nitro": 7454,
      "acquaint": 7455,
      "mannered": 7456,
      "figure": 7457,
      "pleasure": 7458,
      "pneumon": 7459,
      "tipped": 7460,
      "writer": 7461,
      "ituted": 7462,
      "orchest": 7463,
      "ocoel": 7464,
      "categor": 7465,
      "combust": 7466,
      "pericard": 7467,
      "origin": 7468,
      "gymn": 7469,
      "trumpet": 7470,
      "lubric": 7471,
      "develop": 7472,
      "Bob": 7473,
      "Cho": 7474,
      "Camp": 7475,
      "Eug": 7476,
      "Fin": 7477,
      "Fil": 7478,
      "Greg": 7479,
      "Hu": 7480,
      "Hed": 7481,
      "Mit": 7482,
      "Mari": 7483,
      "Ny": 7484,
      "Ok": 7485,
      "Sat": 7486,
      "South": 7487,
      "Thy": 7488,
      "Wa": 7489,
      "aient": 7490,
      "bility": 7491,
      "cash": 7492,
      "crank": 7493,
      "dag": 7494,
      "dell": 7495,
      "eut": 7496,
      "eury": 7497,
      "flax": 7498,
      "gus": 7499,
      "gow": 7500,
      "iamb": 7501,
      "jus": 7502,
      "lup": 7503,
      "lash": 7504,
      "little": 7505,
      "pure": 7506,
      "rural": 7507,
      "swo": 7508,
      "sult": 7509,
      "sled": 7510,
      "tiger": 7511,
      "Â«": 7512,
      "Ã´": 7513,
      "inquis": 7514,
      "anag": 7515,
      "atism": 7516,
      "alum": 7517,
      "argu": 7518,
      "island": 7519,
      "orh": 7520,
      "orize": 7521,
      "unas": 7522,
      "itiveness": 7523,
      "rou": 7524,
      "sts": 7525,
      "stur": 7526,
      "station": 7527,
      "stress": 7528,
      "strew": 7529,
      "staphyl": 7530,
      "chore": 7531,
      "usher": 7532,
      "rae": 7533,
      "ionism": 7534,
      "idate": 7535,
      "idge": 7536,
      "phle": 7537,
      "uloid": 7538,
      "acus": 7539,
      "osy": 7540,
      "osing": 7541,
      "osia": 7542,
      "otry": 7543,
      "rile": 7544,
      "umed": 7545,
      "ecess": 7546,
      "agne": 7547,
      "opson": 7548,
      "opoly": 7549,
      "igan": 7550,
      "quat": 7551,
      "antep": 7552,
      "nonco": 7553,
      "iaz": 7554,
      "verd": 7555,
      "perist": 7556,
      "loft": 7557,
      "shir": 7558,
      "shack": 7559,
      "procur": 7560,
      "prolog": 7561,
      "deut": 7562,
      "lak": 7563,
      "exis": 7564,
      "explic": 7565,
      "ellation": 7566,
      "hygro": 7567,
      "hymn": 7568,
      "oblong": 7569,
      "obenz": 7570,
      "astron": 7571,
      "asthen": 7572,
      "keel": 7573,
      "nea": 7574,
      "allic": 7575,
      "scape": 7576,
      "endable": 7577,
      "telegraph": 7578,
      "pty": 7579,
      "ophosph": 7580,
      "cling": 7581,
      "intermed": 7582,
      "ovate": 7583,
      "reser": 7584,
      "weep": 7585,
      "inson": 7586,
      "moul": 7587,
      "hoea": 7588,
      "carcin": 7589,
      "diet": 7590,
      "diabol": 7591,
      "rowing": 7592,
      "vein": 7593,
      "mere": 7594,
      "barn": 7595,
      "feeding": 7596,
      "brill": 7597,
      "Angel": 7598,
      "brazen": 7599,
      "sermon": 7600,
      "archae": 7601,
      "oft": 7602,
      "gency": 7603,
      "incur": 7604,
      "azo": 7605,
      "azar": 7606,
      "axillary": 7607,
      "ethane": 7608,
      "venom": 7609,
      "ennes": 7610,
      "arson": 7611,
      "demand": 7612,
      "patient": 7613,
      "theolog": 7614,
      "denomin": 7615,
      "prize": 7616,
      "culate": 7617,
      "volcan": 7618,
      "volution": 7619,
      "rolled": 7620,
      "commit": 7621,
      "knight": 7622,
      "cannon": 7623,
      "accust": 7624,
      "ionality": 7625,
      "charged": 7626,
      "Stan": 7627,
      "boned": 7628,
      "unker": 7629,
      "embod": 7630,
      "preced": 7631,
      "pinch": 7632,
      "scribed": 7633,
      "otherap": 7634,
      "birds": 7635,
      "odontia": 7636,
      "arthro": 7637,
      "waist": 7638,
      "lamy": 7639,
      "glob": 7640,
      "omeric": 7641,
      "digest": 7642,
      "rably": 7643,
      "optera": 7644,
      "agonal": 7645,
      "nutrit": 7646,
      "urgical": 7647,
      "feder": 7648,
      "dolich": 7649,
      "throat": 7650,
      "iques": 7651,
      "fruited": 7652,
      "machine": 7653,
      "vigil": 7654,
      "experiment": 7655,
      "sober": 7656,
      "peritone": 7657,
      "American": 7658,
      "opexy": 7659,
      "righte": 7660,
      "architect": 7661,
      "Asc": 7662,
      "Cad": 7663,
      "Cop": 7664,
      "Fort": 7665,
      "His": 7666,
      "Hib": 7667,
      "Jon": 7668,
      "Jun": 7669,
      "Ku": 7670,
      "Lud": 7671,
      "Leg": 7672,
      "Lew": 7673,
      "MT": 7674,
      "Mu": 7675,
      "Maz": 7676,
      "Maj": 7677,
      "Nap": 7678,
      "SO": 7679,
      "Si": 7680,
      "Sac": 7681,
      "Sur": 7682,
      "Syl": 7683,
      "Spe": 7684,
      "Ved": 7685,
      "Yor": 7686,
      "Zo": 7687,
      "bary": 7688,
      "bung": 7689,
      "cocc": 7690,
      "date": 7691,
      "dup": 7692,
      "dles": 7693,
      "eater": 7694,
      "fow": 7695,
      "fty": 7696,
      "felt": 7697,
      "gt": 7698,
      "gence": 7699,
      "hect": 7700,
      "iard": 7701,
      "jay": 7702,
      "knee": 7703,
      "nÃ¤": 7704,
      "pies": 7705,
      "rina": 7706,
      "sine": 7707,
      "sund": 7708,
      "sang": 7709,
      "sax": 7710,
      "scour": 7711,
      "tib": 7712,
      "tire": 7713,
      "vat": 7714,
      "vow": 7715,
      "vene": 7716,
      "wad": 7717,
      "wald": 7718,
      "erite": 7719,
      "inidae": 7720,
      "esian": 7721,
      "eners": 7722,
      "anx": 7723,
      "edict": 7724,
      "unass": 7725,
      "unrem": 7726,
      "unrest": 7727,
      "itten": 7728,
      "rele": 7729,
      "rema": 7730,
      "stink": 7731,
      "chill": 7732,
      "chow": 7733,
      "omi": 7734,
      "essential": 7735,
      "idel": 7736,
      "ulousness": 7737,
      "accur": 7738,
      "uron": 7739,
      "thrust": 7740,
      "osar": 7741,
      "utions": 7742,
      "riot": 7743,
      "agic": 7744,
      "opus": 7745,
      "ivory": 7746,
      "ationism": 7747,
      "odial": 7748,
      "perfor": 7749,
      "shore": 7750,
      "ifs": 7751,
      "coy": 7752,
      "coin": 7753,
      "coast": 7754,
      "prohib": 7755,
      "deput": 7756,
      "deacon": 7757,
      "lake": 7758,
      "exam": 7759,
      "spire": 7760,
      "seeming": 7761,
      "unden": 7762,
      "undiv": 7763,
      "hyth": 7764,
      "hybrid": 7765,
      "obil": 7766,
      "keit": 7767,
      "neat": 7768,
      "disput": 7769,
      "angium": 7770,
      "beau": 7771,
      "parat": 7772,
      "parab": 7773,
      "ayer": 7774,
      "bout": 7775,
      "assed": 7776,
      "icky": 7777,
      "tait": 7778,
      "trav": 7779,
      "gear": 7780,
      "artific": 7781,
      "lique": 7782,
      "resent": 7783,
      "roned": 7784,
      "pea": 7785,
      "peas": 7786,
      "cork": 7787,
      "correl": 7788,
      "matism": 7789,
      "auch": 7790,
      "retic": 7791,
      "return": 7792,
      "tedly": 7793,
      "etern": 7794,
      "Anton": 7795,
      "slum": 7796,
      "twig": 7797,
      "iks": 7798,
      "azot": 7799,
      "broom": 7800,
      "sno": 7801,
      "ucker": 7802,
      "uckle": 7803,
      "malt": 7804,
      "brel": 7805,
      "brevi": 7806,
      "breeding": 7807,
      "queen": 7808,
      "rels": 7809,
      "porphy": 7810,
      "hemis": 7811,
      "tures": 7812,
      "handic": 7813,
      "plaint": 7814,
      "element": 7815,
      "ilda": 7816,
      "equilib": 7817,
      "suppl": 7818,
      "suppress": 7819,
      "banded": 7820,
      "bulb": 7821,
      "drive": 7822,
      "bathy": 7823,
      "English": 7824,
      "living": 7825,
      "profit": 7826,
      "contradict": 7827,
      "sulphur": 7828,
      "locked": 7829,
      "suffer": 7830,
      "lapar": 7831,
      "royal": 7832,
      "ogamous": 7833,
      "dishon": 7834,
      "journ": 7835,
      "yllabic": 7836,
      "stroke": 7837,
      "sighted": 7838,
      "counsel": 7839,
      "embarrass": 7840,
      "omotor": 7841,
      "strength": 7842,
      "soldier": 7843,
      "elabor": 7844,
      "iflorous": 7845,
      "academ": 7846,
      "american": 7847,
      "advantage": 7848,
      "BL": 7849,
      "Bed": 7850,
      "BER": 7851,
      "Berg": 7852,
      "Cab": 7853,
      "Cong": 7854,
      "Dun": 7855,
      "Dip": 7856,
      "Egy": 7857,
      "FO": 7858,
      "FS": 7859,
      "HER": 7860,
      "Jos": 7861,
      "Just": 7862,
      "Kan": 7863,
      "Lan": 7864,
      "NA": 7865,
      "Ner": 7866,
      "Nem": 7867,
      "Oct": 7868,
      "Pre": 7869,
      "Rep": 7870,
      "Sax": 7871,
      "TE": 7872,
      "Ta": 7873,
      "Van": 7874,
      "bist": 7875,
      "cuc": 7876,
      "cinn": 7877,
      "camb": 7878,
      "crot": 7879,
      "crem": 7880,
      "fitting": 7881,
      "iw": 7882,
      "mie": 7883,
      "nab": 7884,
      "nomin": 7885,
      "oun": 7886,
      "oest": 7887,
      "ounce": 7888,
      "pse": 7889,
      "pang": 7890,
      "pach": 7891,
      "pied": 7892,
      "range": 7893,
      "sib": 7894,
      "sill": 7895,
      "sme": 7896,
      "tac": 7897,
      "tard": 7898,
      "ture": 7899,
      "tink": 7900,
      "tread": 7901,
      "tired": 7902,
      "uve": 7903,
      "uals": 7904,
      "vier": 7905,
      "wif": 7906,
      "wrink": 7907,
      "waters": 7908,
      "xiph": 7909,
      "erie": 7910,
      "enjoy": 7911,
      "aron": 7912,
      "icize": 7913,
      "orist": 7914,
      "orse": 7915,
      "unis": 7916,
      "unfe": 7917,
      "unrec": 7918,
      "itations": 7919,
      "lew": 7920,
      "leys": 7921,
      "eles": 7922,
      "strom": 7923,
      "iline": 7924,
      "olus": 7925,
      "olas": 7926,
      "olia": 7927,
      "ionable": 7928,
      "idently": 7929,
      "phas": 7930,
      "phase": 7931,
      "ulli": 7932,
      "ulcer": 7933,
      "ulfur": 7934,
      "acing": 7935,
      "acetic": 7936,
      "accompan": 7937,
      "enti": 7938,
      "entit": 7939,
      "abund": 7940,
      "term": 7941,
      "territ": 7942,
      "impost": 7943,
      "impart": 7944,
      "impression": 7945,
      "agric": 7946,
      "ocation": 7947,
      "apoc": 7948,
      "anty": 7949,
      "lox": 7950,
      "shag": 7951,
      "shod": 7952,
      "shirt": 7953,
      "ifically": 7954,
      "icalism": 7955,
      "anders": 7956,
      "couch": 7957,
      "deg": 7958,
      "devi": 7959,
      "lave": 7960,
      "heir": 7961,
      "complic": 7962,
      "obser": 7963,
      "asty": 7964,
      "trist": 7965,
      "allot": 7966,
      "enders": 7967,
      "ialized": 7968,
      "teach": 7969,
      "manip": 7970,
      "avan": 7971,
      "parch": 7972,
      "party": 7973,
      "both": 7974,
      "assist": 7975,
      "taught": 7976,
      "monkey": 7977,
      "elyn": 7978,
      "result": 7979,
      "insinu": 7980,
      "hoot": 7981,
      "redist": 7982,
      "hai": 7983,
      "actual": 7984,
      "matur": 7985,
      "deriv": 7986,
      "mah": 7987,
      "semil": 7988,
      "aws": 7989,
      "eved": 7990,
      "grab": 7991,
      "gras": 7992,
      "grade": 7993,
      "minth": 7994,
      "ultim": 7995,
      "aura": 7996,
      "annih": 7997,
      "bras": 7998,
      "slim": 7999
    },
    "merges": [
      [
        "e",
        "r"
      ],
      [
        "i",
        "n"
      ],
      [
        "o",
        "n"
      ],
      [
        "e",
        "s"
      ],
      [
        "e",
        "n"
      ],
      [
        "a",
        "n"
      ],
      [
        "a",
        "t"
      ],
      [
        "e",
        "d"
      ],
      [
        "a",
        "l"
      ],
      [
        "a",
        "r"
      ],
      [
        "i",
        "s"
      ],
      [
        "i",
        "c"
      ],
      [
        "o",
        "r"
      ],
      [
        "in",
        "g"
      ],
      [
        "u",
        "n"
      ],
      [
        "i",
        "t"
      ],
      [
        "r",
        "e"
      ],
      [
        "l",
        "e"
      ],
      [
        "r",
        "o"
      ],
      [
        "e",
        "l"
      ],
      [
        "s",
        "t"
      ],
      [
        "c",
        "h"
      ],
      [
        "u",
        "s"
      ],
      [
        "i",
        "l"
      ],
      [
        "r",
        "a"
      ],
      [
        "o",
        "l"
      ],
      [
        "o",
        "m"
      ],
      [
        "e",
        "t"
      ],
      [
        "i",
        "on"
      ],
      [
        "es",
        "s"
      ],
      [
        "l",
        "y"
      ],
      [
        "i",
        "d"
      ],
      [
        "p",
        "h"
      ],
      [
        "u",
        "l"
      ],
      [
        "a",
        "c"
      ],
      [
        "en",
        "t"
      ],
      [
        "u",
        "r"
      ],
      [
        "a",
        "s"
      ],
      [
        "a",
        "b"
      ],
      [
        "t",
        "h"
      ],
      [
        "e",
        "m"
      ],
      [
        "a",
        "m"
      ],
      [
        "o",
        "s"
      ],
      [
        "a",
        "d"
      ],
      [
        "o",
        "t"
      ],
      [
        "u",
        "t"
      ],
      [
        "o",
        "us"
      ],
      [
        "r",
        "i"
      ],
      [
        "u",
        "m"
      ],
      [
        "is",
        "t"
      ],
      [
        "o",
        "g"
      ],
      [
        "t",
        "er"
      ],
      [
        "e",
        "c"
      ],
      [
        "i",
        "m"
      ],
      [
        "a",
        "g"
      ],
      [
        "o",
        "p"
      ],
      [
        "i",
        "v"
      ],
      [
        "i",
        "g"
      ],
      [
        "at",
        "ion"
      ],
      [
        "o",
        "c"
      ],
      [
        "o",
        "d"
      ],
      [
        "er",
        "s"
      ],
      [
        "i",
        "z"
      ],
      [
        "a",
        "p"
      ],
      [
        "q",
        "u"
      ],
      [
        "an",
        "t"
      ],
      [
        "i",
        "r"
      ],
      [
        "n",
        "on"
      ],
      [
        "i",
        "a"
      ],
      [
        "v",
        "er"
      ],
      [
        "s",
        "u"
      ],
      [
        "p",
        "er"
      ],
      [
        "l",
        "o"
      ],
      [
        "c",
        "on"
      ],
      [
        "es",
        "t"
      ],
      [
        "s",
        "h"
      ],
      [
        "n",
        "ess"
      ],
      [
        "at",
        "e"
      ],
      [
        "i",
        "f"
      ],
      [
        "i",
        "p"
      ],
      [
        "ic",
        "al"
      ],
      [
        "an",
        "d"
      ],
      [
        "c",
        "o"
      ],
      [
        "p",
        "ro"
      ],
      [
        "d",
        "e"
      ],
      [
        "l",
        "a"
      ],
      [
        "e",
        "x"
      ],
      [
        "s",
        "p"
      ],
      [
        "'",
        "s"
      ],
      [
        "el",
        "l"
      ],
      [
        "i",
        "an"
      ],
      [
        "c",
        "e"
      ],
      [
        "s",
        "e"
      ],
      [
        "is",
        "m"
      ],
      [
        "in",
        "e"
      ],
      [
        "un",
        "d"
      ],
      [
        "c",
        "t"
      ],
      [
        "p",
        "re"
      ],
      [
        "ab",
        "le"
      ],
      [
        "i",
        "es"
      ],
      [
        "h",
        "e"
      ],
      [
        "is",
        "h"
      ],
      [
        "it",
        "y"
      ],
      [
        "c",
        "om"
      ],
      [
        "i",
        "b"
      ],
      [
        "u",
        "d"
      ],
      [
        "il",
        "l"
      ],
      [
        "ar",
        "d"
      ],
      [
        "h",
        "y"
      ],
      [
        "o",
        "b"
      ],
      [
        "a",
        "st"
      ],
      [
        "k",
        "e"
      ],
      [
        "p",
        "l"
      ],
      [
        "n",
        "e"
      ],
      [
        "p",
        "r"
      ],
      [
        "o",
        "w"
      ],
      [
        "t",
        "r"
      ],
      [
        "it",
        "e"
      ],
      [
        "al",
        "l"
      ],
      [
        "o",
        "ver"
      ],
      [
        "s",
        "c"
      ],
      [
        "en",
        "d"
      ],
      [
        "a",
        "e"
      ],
      [
        "i",
        "al"
      ],
      [
        "t",
        "e"
      ],
      [
        "f",
        "f"
      ],
      [
        "m",
        "an"
      ],
      [
        "f",
        "or"
      ],
      [
        "i",
        "e"
      ],
      [
        "u",
        "g"
      ],
      [
        "m",
        "ent"
      ],
      [
        "a",
        "k"
      ],
      [
        "a",
        "v"
      ],
      [
        "iv",
        "e"
      ],
      [
        "d",
        "is"
      ],
      [
        "an",
        "g"
      ],
      [
        "p",
        "t"
      ],
      [
        "at",
        "ed"
      ],
      [
        "r",
        "y"
      ],
      [
        "b",
        "e"
      ],
      [
        "b",
        "l"
      ],
      [
        "u",
        "c"
      ],
      [
        "in",
        "d"
      ],
      [
        "p",
        "ar"
      ],
      [
        "a",
        "y"
      ],
      [
        "b",
        "o"
      ],
      [
        "ec",
        "t"
      ],
      [
        "o",
        "st"
      ],
      [
        "o",
        "ph"
      ],
      [
        "c",
        "l"
      ],
      [
        "y",
        "l"
      ],
      [
        "h",
        "t"
      ],
      [
        "in",
        "t"
      ],
      [
        "at",
        "h"
      ],
      [
        "su",
        "b"
      ],
      [
        "ol",
        "og"
      ],
      [
        "as",
        "s"
      ],
      [
        "en",
        "ess"
      ],
      [
        "u",
        "b"
      ],
      [
        "e",
        "p"
      ],
      [
        "o",
        "ut"
      ],
      [
        "f",
        "l"
      ],
      [
        "en",
        "s"
      ],
      [
        "or",
        "t"
      ],
      [
        "i",
        "er"
      ],
      [
        "u",
        "p"
      ],
      [
        "ic",
        "k"
      ],
      [
        "t",
        "a"
      ],
      [
        "ical",
        "ly"
      ],
      [
        "ac",
        "k"
      ],
      [
        "m",
        "on"
      ],
      [
        "iz",
        "e"
      ],
      [
        "f",
        "ul"
      ],
      [
        "t",
        "ra"
      ],
      [
        "c",
        "y"
      ],
      [
        "g",
        "e"
      ],
      [
        "at",
        "or"
      ],
      [
        "in",
        "ter"
      ],
      [
        "ar",
        "t"
      ],
      [
        "el",
        "y"
      ],
      [
        "l",
        "i"
      ],
      [
        "o",
        "v"
      ],
      [
        "u",
        "st"
      ],
      [
        "i",
        "ous"
      ],
      [
        "a",
        "ch"
      ],
      [
        "m",
        "is"
      ],
      [
        "w",
        "or"
      ],
      [
        "r",
        "es"
      ],
      [
        "s",
        "y"
      ],
      [
        "w",
        "e"
      ],
      [
        "id",
        "e"
      ],
      [
        "o",
        "k"
      ],
      [
        "ar",
        "y"
      ],
      [
        "r",
        "on"
      ],
      [
        "at",
        "ing"
      ],
      [
        "b",
        "er"
      ],
      [
        "s",
        "el"
      ],
      [
        "r",
        "an"
      ],
      [
        "p",
        "e"
      ],
      [
        "u",
        "re"
      ],
      [
        "r",
        "ic"
      ],
      [
        "ra",
        "ph"
      ],
      [
        "in",
        "s"
      ],
      [
        "ac",
        "e"
      ],
      [
        "m",
        "o"
      ],
      [
        "lo",
        "w"
      ],
      [
        "h",
        "o"
      ],
      [
        "t",
        "o"
      ],
      [
        "on",
        "e"
      ],
      [
        "r",
        "ed"
      ],
      [
        "h",
        "a"
      ],
      [
        "ac",
        "t"
      ],
      [
        "le",
        "t"
      ],
      [
        "c",
        "or"
      ],
      [
        "m",
        "at"
      ],
      [
        "oc",
        "k"
      ],
      [
        "y",
        "s"
      ],
      [
        "g",
        "l"
      ],
      [
        "m",
        "e"
      ],
      [
        "l",
        "ess"
      ],
      [
        "p",
        "o"
      ],
      [
        "h",
        "er"
      ],
      [
        "m",
        "et"
      ],
      [
        "r",
        "u"
      ],
      [
        "ig",
        "ht"
      ],
      [
        "c",
        "ar"
      ],
      [
        "d",
        "er"
      ],
      [
        "m",
        "a"
      ],
      [
        "s",
        "em"
      ],
      [
        "c",
        "ol"
      ],
      [
        "an",
        "s"
      ],
      [
        "ing",
        "ly"
      ],
      [
        "d",
        "i"
      ],
      [
        "s",
        "o"
      ],
      [
        "a",
        "w"
      ],
      [
        "is",
        "e"
      ],
      [
        "sel",
        "f"
      ],
      [
        "e",
        "v"
      ],
      [
        "p",
        "ol"
      ],
      [
        "i",
        "um"
      ],
      [
        "ag",
        "e"
      ],
      [
        "f",
        "o"
      ],
      [
        "il",
        "ity"
      ],
      [
        "g",
        "ra"
      ],
      [
        "m",
        "in"
      ],
      [
        "w",
        "o"
      ],
      [
        "it",
        "h"
      ],
      [
        "t",
        "on"
      ],
      [
        "il",
        "le"
      ],
      [
        "und",
        "er"
      ],
      [
        "ro",
        "w"
      ],
      [
        "v",
        "e"
      ],
      [
        "o",
        "id"
      ],
      [
        "ro",
        "p"
      ],
      [
        "ul",
        "t"
      ],
      [
        "w",
        "ell"
      ],
      [
        "su",
        "per"
      ],
      [
        "og",
        "raph"
      ],
      [
        "w",
        "h"
      ],
      [
        "a",
        "u"
      ],
      [
        "al",
        "ly"
      ],
      [
        "iz",
        "ed"
      ],
      [
        "en",
        "ce"
      ],
      [
        "m",
        "er"
      ],
      [
        "b",
        "ar"
      ],
      [
        "re",
        "t"
      ],
      [
        "in",
        "ess"
      ],
      [
        "r",
        "at"
      ],
      [
        "ul",
        "ar"
      ],
      [
        "t",
        "ed"
      ],
      [
        "et",
        "er"
      ],
      [
        "o",
        "th"
      ],
      [
        "a",
        "h"
      ],
      [
        "t",
        "y"
      ],
      [
        "C",
        "h"
      ],
      [
        "le",
        "ct"
      ],
      [
        "l",
        "ing"
      ],
      [
        "l",
        "ed"
      ],
      [
        "un",
        "g"
      ],
      [
        "ic",
        "e"
      ],
      [
        "m",
        "ar"
      ],
      [
        "id",
        "ae"
      ],
      [
        "ic",
        "h"
      ],
      [
        "en",
        "e"
      ],
      [
        "f",
        "er"
      ],
      [
        "an",
        "n"
      ],
      [
        "ro",
        "s"
      ],
      [
        "b",
        "ur"
      ],
      [
        "i",
        "re"
      ],
      [
        "Ã",
        "©"
      ],
      [
        "i",
        "ed"
      ],
      [
        "f",
        "e"
      ],
      [
        "g",
        "er"
      ],
      [
        "b",
        "r"
      ],
      [
        "o",
        "x"
      ],
      [
        "A",
        "n"
      ],
      [
        "t",
        "ri"
      ],
      [
        "g",
        "u"
      ],
      [
        "p",
        "ed"
      ],
      [
        "0",
        "0"
      ],
      [
        "b",
        "ra"
      ],
      [
        "os",
        "e"
      ],
      [
        "y",
        "n"
      ],
      [
        "s",
        "er"
      ],
      [
        "ation",
        "s"
      ],
      [
        "m",
        "ic"
      ],
      [
        "s",
        "l"
      ],
      [
        "m",
        "y"
      ],
      [
        "c",
        "er"
      ],
      [
        "ig",
        "n"
      ],
      [
        "s",
        "k"
      ],
      [
        "or",
        "n"
      ],
      [
        "i",
        "le"
      ],
      [
        "al",
        "e"
      ],
      [
        "d",
        "ec"
      ],
      [
        "m",
        "en"
      ],
      [
        "ar",
        "ch"
      ],
      [
        "at",
        "ive"
      ],
      [
        "o",
        "f"
      ],
      [
        "m",
        "ed"
      ],
      [
        "un",
        "t"
      ],
      [
        "ol",
        "d"
      ],
      [
        "h",
        "al"
      ],
      [
        "g",
        "en"
      ],
      [
        "or",
        "e"
      ],
      [
        "p",
        "le"
      ],
      [
        "as",
        "h"
      ],
      [
        "c",
        "op"
      ],
      [
        "v",
        "ille"
      ],
      [
        "p",
        "os"
      ],
      [
        "a",
        "ut"
      ],
      [
        "in",
        "c"
      ],
      [
        "ab",
        "l"
      ],
      [
        "o",
        "ur"
      ],
      [
        "ing",
        "s"
      ],
      [
        "t",
        "w"
      ],
      [
        "he",
        "ad"
      ],
      [
        "li",
        "ke"
      ],
      [
        "sh",
        "ip"
      ],
      [
        "i",
        "k"
      ],
      [
        "on",
        "d"
      ],
      [
        "il",
        "y"
      ],
      [
        "un",
        "c"
      ],
      [
        "un",
        "s"
      ],
      [
        "iz",
        "ation"
      ],
      [
        "iz",
        "ing"
      ],
      [
        "a",
        "z"
      ],
      [
        "or",
        "m"
      ],
      [
        "r",
        "it"
      ],
      [
        "ch",
        "e"
      ],
      [
        "as",
        "i"
      ],
      [
        "re",
        "e"
      ],
      [
        "on",
        "g"
      ],
      [
        "at",
        "es"
      ],
      [
        "iv",
        "ely"
      ],
      [
        "ion",
        "s"
      ],
      [
        "u",
        "e"
      ],
      [
        "in",
        "k"
      ],
      [
        "ow",
        "n"
      ],
      [
        "an",
        "th"
      ],
      [
        "c",
        "k"
      ],
      [
        "an",
        "ce"
      ],
      [
        "at",
        "er"
      ],
      [
        "in",
        "n"
      ],
      [
        "an",
        "e"
      ],
      [
        "o",
        "u"
      ],
      [
        "on",
        "t"
      ],
      [
        "c",
        "al"
      ],
      [
        "a",
        "f"
      ],
      [
        "or",
        "s"
      ],
      [
        "b",
        "le"
      ],
      [
        "g",
        "r"
      ],
      [
        "d",
        "es"
      ],
      [
        "p",
        "ers"
      ],
      [
        "at",
        "t"
      ],
      [
        "e",
        "y"
      ],
      [
        "ri",
        "g"
      ],
      [
        "b",
        "ro"
      ],
      [
        "i",
        "est"
      ],
      [
        "ab",
        "ly"
      ],
      [
        "ra",
        "m"
      ],
      [
        "og",
        "en"
      ],
      [
        "ist",
        "ic"
      ],
      [
        "ed",
        "ness"
      ],
      [
        "ab",
        "ility"
      ],
      [
        "an",
        "c"
      ],
      [
        "em",
        "ent"
      ],
      [
        "s",
        "n"
      ],
      [
        "th",
        "er"
      ],
      [
        "p",
        "ost"
      ],
      [
        "a",
        "x"
      ],
      [
        "st",
        "er"
      ],
      [
        "om",
        "y"
      ],
      [
        "d",
        "o"
      ],
      [
        "com",
        "ment"
      ],
      [
        "c",
        "ur"
      ],
      [
        "on",
        "s"
      ],
      [
        "uc",
        "k"
      ],
      [
        "m",
        "al"
      ],
      [
        "b",
        "re"
      ],
      [
        "r",
        "en"
      ],
      [
        "it",
        "ies"
      ],
      [
        "qu",
        "asi"
      ],
      [
        "t",
        "ing"
      ],
      [
        "om",
        "e"
      ],
      [
        "A",
        "l"
      ],
      [
        "le",
        "g"
      ],
      [
        "l",
        "er"
      ],
      [
        "s",
        "w"
      ],
      [
        "hy",
        "d"
      ],
      [
        "#",
        "!"
      ],
      [
        "c",
        "ent"
      ],
      [
        "o",
        "ch"
      ],
      [
        "et",
        "h"
      ],
      [
        "p",
        "y"
      ],
      [
        "v",
        "en"
      ],
      [
        "a",
        "ff"
      ],
      [
        "b",
        "ed"
      ],
      [
        "un",
        "ter"
      ],
      [
        "g",
        "o"
      ],
      [
        "Ġ",
        "-"
      ],
      [
        "en",
        "n"
      ],
      [
        "if",
        "ic"
      ],
      [
        "us",
        "h"
      ],
      [
        "a",
        "in"
      ],
      [
        "is",
        "s"
      ],
      [
        "ar",
        "e"
      ],
      [
        "qu",
        "e"
      ],
      [
        "y",
        "m"
      ],
      [
        "t",
        "ro"
      ],
      [
        "ug",
        "h"
      ],
      [
        "a",
        "ir"
      ],
      [
        "or",
        "d"
      ],
      [
        "d",
        "u"
      ],
      [
        "la",
        "st"
      ],
      [
        "olog",
        "y"
      ],
      [
        "se",
        "ud"
      ],
      [
        "re",
        "l"
      ],
      [
        "an",
        "k"
      ],
      [
        "i",
        "o"
      ],
      [
        "ar",
        "s"
      ],
      [
        "i",
        "x"
      ],
      [
        "en",
        "c"
      ],
      [
        "er",
        "ed"
      ],
      [
        "et",
        "ic"
      ],
      [
        "p",
        "or"
      ],
      [
        "is",
        "ed"
      ],
      [
        "l",
        "and"
      ],
      [
        "st",
        "e"
      ],
      [
        "0",
        "1"
      ],
      [
        "p",
        "al"
      ],
      [
        "s",
        "ch"
      ],
      [
        "l",
        "es"
      ],
      [
        "h",
        "em"
      ],
      [
        "p",
        "et"
      ],
      [
        "abl",
        "eness"
      ],
      [
        "d",
        "em"
      ],
      [
        "t",
        "en"
      ],
      [
        "wo",
        "od"
      ],
      [
        "b",
        "ack"
      ],
      [
        "t",
        "ur"
      ],
      [
        "os",
        "is"
      ],
      [
        "a",
        "ph"
      ],
      [
        "p",
        "at"
      ],
      [
        "a",
        "il"
      ],
      [
        "ed",
        "ly"
      ],
      [
        "th",
        "e"
      ],
      [
        "c",
        "ap"
      ],
      [
        "re",
        "g"
      ],
      [
        "f",
        "t"
      ],
      [
        "i",
        "ent"
      ],
      [
        "ous",
        "ly"
      ],
      [
        "pr",
        "es"
      ],
      [
        "r",
        "ing"
      ],
      [
        "ig",
        "h"
      ],
      [
        "ib",
        "le"
      ],
      [
        "g",
        "ed"
      ],
      [
        "s",
        "ol"
      ],
      [
        "it",
        "ion"
      ],
      [
        "er",
        "y"
      ],
      [
        "co",
        "unter"
      ],
      [
        "e",
        "g"
      ],
      [
        "d",
        "en"
      ],
      [
        "p",
        "ort"
      ],
      [
        "p",
        "seud"
      ],
      [
        "z",
        "o"
      ],
      [
        "ph",
        "al"
      ],
      [
        "h",
        "ar"
      ],
      [
        "A",
        "r"
      ],
      [
        "os",
        "s"
      ],
      [
        "ist",
        "s"
      ],
      [
        "ic",
        "t"
      ],
      [
        "ro",
        "m"
      ],
      [
        "am",
        "b"
      ],
      [
        "wor",
        "k"
      ],
      [
        "l",
        "in"
      ],
      [
        "y",
        "t"
      ],
      [
        "h",
        "and"
      ],
      [
        "in",
        "a"
      ],
      [
        "if",
        "y"
      ],
      [
        "o",
        "ff"
      ],
      [
        "p",
        "an"
      ],
      [
        "p",
        "ri"
      ],
      [
        "d",
        "ra"
      ],
      [
        "c",
        "ul"
      ],
      [
        "if",
        "orm"
      ],
      [
        "al",
        "s"
      ],
      [
        "as",
        "e"
      ],
      [
        "tr",
        "ans"
      ],
      [
        "ro",
        "t"
      ],
      [
        "v",
        "ol"
      ],
      [
        "ro",
        "l"
      ],
      [
        "iv",
        "eness"
      ],
      [
        "w",
        "ard"
      ],
      [
        "e",
        "ar"
      ],
      [
        "it",
        "is"
      ],
      [
        "p",
        "s"
      ],
      [
        "in",
        "f"
      ],
      [
        "or",
        "y"
      ],
      [
        "hy",
        "per"
      ],
      [
        "ic",
        "s"
      ],
      [
        "or",
        "ph"
      ],
      [
        "con",
        "t"
      ],
      [
        "c",
        "a"
      ],
      [
        "v",
        "ent"
      ],
      [
        "el",
        "d"
      ],
      [
        "v",
        "ers"
      ],
      [
        "pr",
        "ess"
      ],
      [
        "ator",
        "y"
      ],
      [
        "ar",
        "i"
      ],
      [
        "om",
        "an"
      ],
      [
        "com",
        "m"
      ],
      [
        "om",
        "et"
      ],
      [
        "ul",
        "l"
      ],
      [
        "is",
        "ing"
      ],
      [
        "pol",
        "y"
      ],
      [
        "k",
        "n"
      ],
      [
        "s",
        "m"
      ],
      [
        "ec",
        "k"
      ],
      [
        "e",
        "lect"
      ],
      [
        "f",
        "ish"
      ],
      [
        "v",
        "al"
      ],
      [
        "b",
        "or"
      ],
      [
        "Ã",
        "¤"
      ],
      [
        "er",
        "ous"
      ],
      [
        "s",
        "on"
      ],
      [
        "ro",
        "ph"
      ],
      [
        "b",
        "i"
      ],
      [
        "c",
        "at"
      ],
      [
        "l",
        "or"
      ],
      [
        "u",
        "al"
      ],
      [
        "r",
        "id"
      ],
      [
        "z",
        "e"
      ],
      [
        "er",
        "n"
      ],
      [
        "in",
        "es"
      ],
      [
        "ar",
        "m"
      ],
      [
        "p",
        "ra"
      ],
      [
        "r",
        "h"
      ],
      [
        "p",
        "ur"
      ],
      [
        "b",
        "y"
      ],
      [
        "o",
        "y"
      ],
      [
        "r",
        "um"
      ],
      [
        "for",
        "m"
      ],
      [
        "o",
        "le"
      ],
      [
        "it",
        "t"
      ],
      [
        "v",
        "el"
      ],
      [
        "c",
        "ra"
      ],
      [
        "re",
        "f"
      ],
      [
        "c",
        "an"
      ],
      [
        "et",
        "t"
      ],
      [
        "b",
        "ut"
      ],
      [
        "u",
        "ch"
      ],
      [
        "n",
        "er"
      ],
      [
        "p",
        "ing"
      ],
      [
        "s",
        "al"
      ],
      [
        "ad",
        "e"
      ],
      [
        "un",
        "f"
      ],
      [
        "v",
        "is"
      ],
      [
        "ac",
        "c"
      ],
      [
        "v",
        "i"
      ],
      [
        "om",
        "at"
      ],
      [
        "g",
        "ar"
      ],
      [
        "b",
        "al"
      ],
      [
        "re",
        "m"
      ],
      [
        "h",
        "um"
      ],
      [
        "ace",
        "ae"
      ],
      [
        "in",
        "ed"
      ],
      [
        "el",
        "i"
      ],
      [
        "p",
        "la"
      ],
      [
        "re",
        "c"
      ],
      [
        "s",
        "ul"
      ],
      [
        "u",
        "ff"
      ],
      [
        "u",
        "ra"
      ],
      [
        "ace",
        "ous"
      ],
      [
        "le",
        "y"
      ],
      [
        "e",
        "e"
      ],
      [
        "i",
        "as"
      ],
      [
        "r",
        "est"
      ],
      [
        "b",
        "el"
      ],
      [
        "r",
        "ess"
      ],
      [
        "hal",
        "f"
      ],
      [
        "h",
        "om"
      ],
      [
        "re",
        "p"
      ],
      [
        "ot",
        "t"
      ],
      [
        "d",
        "om"
      ],
      [
        "it",
        "ic"
      ],
      [
        "w",
        "ay"
      ],
      [
        "us",
        "s"
      ],
      [
        "ag",
        "n"
      ],
      [
        "sy",
        "n"
      ],
      [
        "u",
        "th"
      ],
      [
        "ion",
        "al"
      ],
      [
        "pr",
        "ed"
      ],
      [
        "st",
        "ra"
      ],
      [
        "er",
        "e"
      ],
      [
        "r",
        "al"
      ],
      [
        "M",
        "ar"
      ],
      [
        "de",
        "f"
      ],
      [
        "m",
        "es"
      ],
      [
        "s",
        "qu"
      ],
      [
        "ous",
        "ness"
      ],
      [
        "s",
        "ur"
      ],
      [
        "un",
        "n"
      ],
      [
        "if",
        "f"
      ],
      [
        "ad",
        "d"
      ],
      [
        "ious",
        "ly"
      ],
      [
        "p",
        "en"
      ],
      [
        "ch",
        "ar"
      ],
      [
        "p",
        "a"
      ],
      [
        "S",
        "t"
      ],
      [
        "p",
        "i"
      ],
      [
        "m",
        "el"
      ],
      [
        "ph",
        "ot"
      ],
      [
        "d",
        "el"
      ],
      [
        "ation",
        "al"
      ],
      [
        "c",
        "ri"
      ],
      [
        "h",
        "ip"
      ],
      [
        "ir",
        "d"
      ],
      [
        "b",
        "on"
      ],
      [
        "al",
        "k"
      ],
      [
        "h",
        "ol"
      ],
      [
        "c",
        "le"
      ],
      [
        "h",
        "am"
      ],
      [
        "u",
        "ro"
      ],
      [
        "it",
        "ch"
      ],
      [
        "p",
        "ot"
      ],
      [
        "or",
        "g"
      ],
      [
        "ant",
        "i"
      ],
      [
        "con",
        "s"
      ],
      [
        "a",
        "ur"
      ],
      [
        "m",
        "ak"
      ],
      [
        "en",
        "cy"
      ],
      [
        "m",
        "ult"
      ],
      [
        "h",
        "ous"
      ],
      [
        "t",
        "im"
      ],
      [
        "mic",
        "ro"
      ],
      [
        "g",
        "y"
      ],
      [
        "e",
        "k"
      ],
      [
        "e",
        "le"
      ],
      [
        "w",
        "ar"
      ],
      [
        "ug",
        "ht"
      ],
      [
        "fo",
        "ot"
      ],
      [
        "er",
        "t"
      ],
      [
        "il",
        "d"
      ],
      [
        "he",
        "art"
      ],
      [
        "g",
        "re"
      ],
      [
        "yl",
        "l"
      ],
      [
        "par",
        "t"
      ],
      [
        "b",
        "it"
      ],
      [
        "h",
        "or"
      ],
      [
        "g",
        "al"
      ],
      [
        "c",
        "ir"
      ],
      [
        "d",
        "y"
      ],
      [
        "e",
        "qu"
      ],
      [
        "l",
        "ar"
      ],
      [
        "on",
        "ic"
      ],
      [
        "pro",
        "of"
      ],
      [
        "b",
        "es"
      ],
      [
        "et",
        "s"
      ],
      [
        "am",
        "p"
      ],
      [
        "olog",
        "ical"
      ],
      [
        "g",
        "ro"
      ],
      [
        "g",
        "ing"
      ],
      [
        "ct",
        "ion"
      ],
      [
        "com",
        "p"
      ],
      [
        "P",
        "ro"
      ],
      [
        "ar",
        "ian"
      ],
      [
        "or",
        "ed"
      ],
      [
        "con",
        "f"
      ],
      [
        "I",
        "n"
      ],
      [
        "in",
        "al"
      ],
      [
        "u",
        "k"
      ],
      [
        "ic",
        "ul"
      ],
      [
        "e",
        "b"
      ],
      [
        "f",
        "ac"
      ],
      [
        "s",
        "il"
      ],
      [
        "un",
        "k"
      ],
      [
        "ros",
        "s"
      ],
      [
        "c",
        "lo"
      ],
      [
        "d",
        "ist"
      ],
      [
        "er",
        "ing"
      ],
      [
        "re",
        "ad"
      ],
      [
        "ious",
        "ness"
      ],
      [
        "n",
        "a"
      ],
      [
        "t",
        "op"
      ],
      [
        "at",
        "ur"
      ],
      [
        "e",
        "w"
      ],
      [
        "j",
        "ect"
      ],
      [
        "fl",
        "u"
      ],
      [
        "ol",
        "l"
      ],
      [
        "em",
        "b"
      ],
      [
        "ce",
        "pt"
      ],
      [
        "tw",
        "ice"
      ],
      [
        "ent",
        "ly"
      ],
      [
        "an",
        "a"
      ],
      [
        "el",
        "s"
      ],
      [
        "at",
        "ic"
      ],
      [
        "c",
        "re"
      ],
      [
        "r",
        "is"
      ],
      [
        "ter",
        "s"
      ],
      [
        "a",
        "it"
      ],
      [
        "es",
        "is"
      ],
      [
        "s",
        "s"
      ],
      [
        "el",
        "ess"
      ],
      [
        "il",
        "i"
      ],
      [
        "c",
        "um"
      ],
      [
        "or",
        "th"
      ],
      [
        "st",
        "r"
      ],
      [
        "ex",
        "t"
      ],
      [
        "b",
        "en"
      ],
      [
        "ch",
        "i"
      ],
      [
        "om",
        "eter"
      ],
      [
        "l",
        "im"
      ],
      [
        "ra",
        "g"
      ],
      [
        "ov",
        "ers"
      ],
      [
        "r",
        "in"
      ],
      [
        "r",
        "ist"
      ],
      [
        "er",
        "al"
      ],
      [
        "ot",
        "e"
      ],
      [
        "os",
        "cop"
      ],
      [
        "k",
        "s"
      ],
      [
        "c",
        "ut"
      ],
      [
        "ath",
        "er"
      ],
      [
        "ro",
        "g"
      ],
      [
        "S",
        "h"
      ],
      [
        "et",
        "te"
      ],
      [
        "hy",
        "p"
      ],
      [
        "l",
        "d"
      ],
      [
        "ial",
        "ly"
      ],
      [
        "im",
        "m"
      ],
      [
        "bur",
        "g"
      ],
      [
        "n",
        "o"
      ],
      [
        "row",
        "n"
      ],
      [
        "i",
        "ph"
      ],
      [
        "rig",
        "ht"
      ],
      [
        "if",
        "ied"
      ],
      [
        "in",
        "st"
      ],
      [
        "d",
        "iv"
      ],
      [
        "la",
        "v"
      ],
      [
        "j",
        "o"
      ],
      [
        "ch",
        "er"
      ],
      [
        "om",
        "a"
      ],
      [
        "pre",
        "c"
      ],
      [
        "if",
        "erous"
      ],
      [
        "y",
        "g"
      ],
      [
        "ast",
        "er"
      ],
      [
        "l",
        "at"
      ],
      [
        "p",
        "ul"
      ],
      [
        "ful",
        "ly"
      ],
      [
        "w",
        "ise"
      ],
      [
        "um",
        "b"
      ],
      [
        "v",
        "it"
      ],
      [
        "b",
        "u"
      ],
      [
        "k",
        "er"
      ],
      [
        "L",
        "e"
      ],
      [
        "sh",
        "e"
      ],
      [
        "pl",
        "ic"
      ],
      [
        "p",
        "in"
      ],
      [
        "olog",
        "ist"
      ],
      [
        "t",
        "s"
      ],
      [
        "m",
        "us"
      ],
      [
        "tr",
        "an"
      ],
      [
        "Ġ",
        "Ġ"
      ],
      [
        "it",
        "es"
      ],
      [
        "ta",
        "il"
      ],
      [
        "hyd",
        "ro"
      ],
      [
        "c",
        "in"
      ],
      [
        "i",
        "eld"
      ],
      [
        "u",
        "le"
      ],
      [
        "C",
        "ar"
      ],
      [
        "sp",
        "ir"
      ],
      [
        "sy",
        "ch"
      ],
      [
        "v",
        "ed"
      ],
      [
        "d",
        "a"
      ],
      [
        "l",
        "en"
      ],
      [
        "am",
        "e"
      ],
      [
        "f",
        "low"
      ],
      [
        "s",
        "ec"
      ],
      [
        "we",
        "ed"
      ],
      [
        "ho",
        "od"
      ],
      [
        "a",
        "er"
      ],
      [
        "th",
        "y"
      ],
      [
        "t",
        "et"
      ],
      [
        "y",
        "ing"
      ],
      [
        "ri",
        "es"
      ],
      [
        "ur",
        "n"
      ],
      [
        "iz",
        "es"
      ],
      [
        "w",
        "ind"
      ],
      [
        "id",
        "es"
      ],
      [
        "l",
        "ong"
      ],
      [
        "l",
        "it"
      ],
      [
        "p",
        "ic"
      ],
      [
        "z",
        "z"
      ],
      [
        "w",
        "ater"
      ],
      [
        "un",
        "ch"
      ],
      [
        "us",
        "e"
      ],
      [
        "ex",
        "p"
      ],
      [
        "e",
        "ff"
      ],
      [
        "ant",
        "ic"
      ],
      [
        "m",
        "od"
      ],
      [
        "v",
        "es"
      ],
      [
        "T",
        "h"
      ],
      [
        "ant",
        "s"
      ],
      [
        "m",
        "or"
      ],
      [
        "m",
        "ac"
      ],
      [
        "ot",
        "ic"
      ],
      [
        "pro",
        "t"
      ],
      [
        "am",
        "in"
      ],
      [
        "en",
        "ed"
      ],
      [
        "ut",
        "e"
      ],
      [
        "ific",
        "ation"
      ],
      [
        "ar",
        "k"
      ],
      [
        "ag",
        "es"
      ],
      [
        "ness",
        "es"
      ],
      [
        "ograph",
        "y"
      ],
      [
        "i",
        "ra"
      ],
      [
        "sc",
        "ri"
      ],
      [
        "l",
        "ight"
      ],
      [
        "o",
        "h"
      ],
      [
        "p",
        "ass"
      ],
      [
        "oc",
        "c"
      ],
      [
        "wor",
        "ld"
      ],
      [
        "p",
        "it"
      ],
      [
        "v",
        "ing"
      ],
      [
        "g",
        "on"
      ],
      [
        "t",
        "em"
      ],
      [
        "m",
        "id"
      ],
      [
        "mis",
        "s"
      ],
      [
        "m",
        "it"
      ],
      [
        "ph",
        "il"
      ],
      [
        "b",
        "as"
      ],
      [
        "b",
        "ol"
      ],
      [
        "v",
        "o"
      ],
      [
        "for",
        "e"
      ],
      [
        "it",
        "ed"
      ],
      [
        "d",
        "own"
      ],
      [
        "ent",
        "er"
      ],
      [
        "os",
        "ph"
      ],
      [
        "op",
        "er"
      ],
      [
        "ap",
        "ed"
      ],
      [
        "ex",
        "c"
      ],
      [
        "E",
        "l"
      ],
      [
        "P",
        "h"
      ],
      [
        "su",
        "p"
      ],
      [
        "re",
        "ct"
      ],
      [
        "E",
        "R"
      ],
      [
        "l",
        "og"
      ],
      [
        "s",
        "a"
      ],
      [
        "i",
        "us"
      ],
      [
        "oc",
        "y"
      ],
      [
        "t",
        "re"
      ],
      [
        "id",
        "ent"
      ],
      [
        "co",
        "ur"
      ],
      [
        "w",
        "ing"
      ],
      [
        "o",
        "e"
      ],
      [
        "at",
        "s"
      ],
      [
        "un",
        "re"
      ],
      [
        "h",
        "ard"
      ],
      [
        "n",
        "ot"
      ],
      [
        "on",
        "y"
      ],
      [
        "b",
        "lo"
      ],
      [
        "ro",
        "us"
      ],
      [
        "am",
[...]
